[PAD]
[UNK]
[CLS]
[SEP]
[MASK]
[SOS]
[EOS]
!
"
#
$
%
&
'
(
)
*
+
,
-
.
/
0
1
2
3
4
5
6
7
8
9
:
;
<
=
>
?
@
[
\
]
^
_
`
a
b
c
d
e
f
g
h
i
j
k
l
m
n
o
p
q
r
s
t
u
v
w
x
y
z
{
|
}
~
·
æ
ð
ı
ĸ
ł
ŋ
ŧ
ƈ
ƒ
ƚ
ƨ
ƫ
ƭ
ƴ
ǀ
ǃ
ǝ
ȝ
ȣ
ȷ
ɍ
ɐ
ɑ
ɒ
ɔ
ɕ
ə
ɛ
ɜ
ɟ
ɢ
ɣ
ɤ
ɥ
ɦ
ɨ
ɩ
ɪ
ɫ
ɬ
ɭ
ɯ
ɲ
ɳ
ɴ
ɵ
ɹ
ɺ
ɻ
ɼ
ɽ
ɾ
ɿ
ʁ
ʂ
ʃ
ʄ
ʅ
ʇ
ʈ
ʉ
ʊ
ʋ
ʌ
ʎ
ʏ
ʐ
ʑ
ʒ
ʔ
ʕ
ʖ
ʜ
ʝ
ʟ
ʡ
ʢ
ʭ
ʹ
ʺ
ʻ
ʼ
ʽ
ʾ
ʿ
ˀ
ˁ
ˆ
ˇ
ˈ
ˉ
ˊ
ˋ
ˌ
ˍ
ˎ
ˏ
ː
ˑ
ˬ
ˮ
ͻ
β
γ
δ
ε
ι
κ
λ
ν
ξ
ο
ρ
σ
τ
υ
φ
χ
ϙ
ϛ
ϝ
ϟ
ϯ
ϳ
б
г
е
з
к
л
н
о
п
с
т
у
ф
х
ц
ч
ъ
ь
э
є
ѕ
і
ј
ѵ
ҁ
ґ
ғ
ҫ
ҭ
ү
ҷ
һ
ӌ
ӏ
ԁ
ԅ
ԇ
ԍ
ԏ
ՙ
դ
յ
ն
ո
չ
ս
ւ
օ
א
ב
ג
ד
ה
ו
ז
ח
ט
י
ך
כ
ל
ן
נ
ס
ע
ף
פ
ץ
צ
ק
ר
ת
װ
ױ
ײ
ء
ا
ب
ة
ت
ث
ج
ح
خ
د
ذ
ر
ز
ع
غ
ـ
ك
ل
م
ن
ه
ى
ي
ٮ
ٱ
ٲ
ٳ
ٴ
ٹ
ٺ
ٻ
ٽ
پ
ٿ
ڀ
ڃ
ڄ
ڈ
ډ
ڊ
ڋ
ڌ
ڍ
ڎ
ڏ
ڐ
ڑ
ڒ
ړ
ڔ
ڕ
ږ
ڗ
ژ
ڙ
ک
ڹ
ں
ڻ
ڽ
ہ
ۃ
ۅ
ۉ
ۊ
ی
ې
ے
ە
ۥ
ۦ
ܐ
ܕ
ܖ
ܘ
ܙ
ܚ
ܝ
ܟ
ܢ
ܥ
ܪ
ܫ
ܬ
ߊ
ߑ
ߗ
ߙ
ߠ
ߤ
ߴ
ߵ
ߺ
ट
र
ऽ
ॱ
ॽ
ঌ
এ
ও
খ
গ
ঘ
চ
ঢ
ণ
দ
ধ
ন
প
ব
য
র
শ
ষ
হ
ঽ
ৰ
৲
৳
ઽ
ட
ก
ค
ฅ
ง
จ
ฑ
ต
ถ
ท
น
บ
ป
ผ
ภ
ม
ย
ร
ล
ว
ห
อ
ฯ
ะ
า
เ
แ
โ
ใ
ไ
ๅ
ๆ
ງ
າ
ເ
ა
ე
ი
კ
ნ
პ
ძ
ᄂ
ᄇ
ᄉ
ᄎ
ᄑ
ᅢ
ᅧ
ᅮ
ᅳ
ᅵ
ᆞ
ᆼ
Ꭲ
Ꭵ
Ꭸ
Ꭻ
Ꮀ
Ꮁ
Ꮠ
Ꮣ
Ꮧ
Ꮭ
Ꮮ
ᐜ
ᐝ
ᐞ
ᐟ
ᐠ
ᐡ
ᐢ
ᐣ
ᐤ
ᐥ
ᐦ
ᐧ
ᐨ
ᐩ
ᐪ
ᐯ
ᐱ
ᐳ
ᐴ
ᐵ
ᐸ
ᐹ
ᑈ
ᑉ
ᑊ
ᑋ
ᑦ
ᒃ
ᒄ
ᒉ
ᒋ
ᒌ
ᒍ
ᒎ
ᒏ
ᒐ
ᒑ
ᒡ
ᒢ
ᒣ
ᒥ
ᒦ
ᒧ
ᒨ
ᒩ
ᒪ
ᒫ
ᒬ
ᒭ
ᒮ
ᒯ
ᒰ
ᒱ
ᒲ
ᒳ
ᒴ
ᒵ
ᒶ
ᒷ
ᒸ
ᒹ
ᒺ
ᒻ
ᒼ
ᒽ
ᒾ
ᓐ
ᓑ
ᓒ
ᓓ
ᓕ
ᓖ
ᓗ
ᓘ
ᓙ
ᓚ
ᓛ
ᓪ
ᓫ
ᓭ
ᓮ
ᓯ
ᓰ
ᓱ
ᓲ
ᓳ
ᓴ
ᓵ
ᓶ
ᓷ
ᓸ
ᓹ
ᓺ
ᓻ
ᓼ
ᓽ
ᓾ
ᓿ
ᔀ
ᔁ
ᔂ
ᔃ
ᔄ
ᔅ
ᔆ
ᔇ
ᔈ
ᔉ
ᔊ
ᔋ
ᔥ
ᔦ
ᔨ
ᔩ
ᔪ
ᔫ
ᔬ
ᔭ
ᔮ
ᔱ
ᔲ
ᔹ
ᔺ
ᔽ
ᔾ
ᔿ
ᕀ
ᕁ
ᕂ
ᕃ
ᕄ
ᕆ
ᕐ
ᕑ
ᕝ
ᕪ
ᕻ
ᕽ
ᖅ
ᖕ
ᖟ
ᖦ
ᖧ
ᖨ
ᖩ
ᖪ
ᖫ
ᖬ
ᖭ
ᖮ
ᖸ
ᖺ
ᖽ
ᖾ
ᖿ
ᗀ
ᗁ
ᗮ
ᘁ
ᘂ
ᘄ
ᘅ
ᘆ
ᘇ
ᘢ
ᘣ
ᘤ
ᘥ
ᘦ
ᘧ
ᙆ
ᙇ
ᚁ
ᚆ
ᚐ
ᴂ
ᴄ
ᴈ
ᴉ
ᴊ
ᴋ
ᴏ
ᴐ
ᴒ
ᴖ
ᴗ
ᴘ
ᴛ
ᴜ
ᴝ
ᴠ
ᴢ
ᴣ
ᴦ
ᴧ
ᴩ
ᴫ
ᴻ
ᵎ
ᵻ
ᶅ
‿
⁀
⁔
ↄ
ⴡ
ⴶ
ⴾ
ⵂ
ⵆ
ⵈ
ⵏ
ⵑ
ⵗ
ⵡ
々
〱
〳
〵
ぃ
く
っ
へ
ゝ
ァ
ア
ィ
イ
ゥ
ウ
ェ
エ
ォ
キ
ク
ケ
コ
シ
ス
ソ
チ
ッ
テ
ト
ナ
ニ
ヌ
ノ
ハ
ヒ
フ
ヘ
マ
ミ
メ
モ
ャ
ュ
ユ
ョ
ラ
リ
レ
ヮ
ワ
ヲ
ン
ヶ
ー
ヽ
一
下
专
丨
丫
中
丶
丿
乀
乁
亅
亠
介
付
件
优
俅
先
入
冖
写
冫
切
卸
取
变
号
否
启
吹
告
固
图
地
址
士
多
始
宀
定
屏
岬
岽
己
常
广
序
开
异
式
张
强
得
忄
惂
打
执
择
捉
捕
换
支
改
文
时
是
显
更
权
析
概
次
氵
求
测
滇
灬
烇
爫
片
率
用
的
示
第
緸
组
绍
自
色
获
藛
藞
藟
藠
藡
藥
藦
藨
行
角
解
讬
试
请
读
賭
账
跳
载
过
进
选
釔
鈦
锕
锞
闪
间
限
页
顺
驶
ꓲ
ꓸ
ꓹ
ꓺ
ꓻ
ꓼ
ꓽ
ꙇ
ꜛ
ꜜ
ꜝ
ꜞ
ꜟ
ꜥ
ꞌ
ﹳ
v0
object
ljava
lcom
lang
invoke
v1
move
v2
string
p0
android
google
const
result
landroid
virtual
iget
gms
internal
v3
cond
goto
v4
p1
if
methodname
return
util
static
v5
init
lgnu
direct
stringbuilder
iput
v6
sget
ads
new
v7
view
int
instance
lorg
void
16
p2
0x0
content
eqz
mapping
nop
os
v8
from16
0x1
widget
support
try
interface
##s
sdk
simplesymbol
v9
sput
lio
common
add
append
2addr
app
array
com
graphics
boolean
pswitch
cast
check
context
aput
nez
tencent
v10
wide
lit8
ll
io
start
lists
parcel
p3
end
core
list
##d
kodular
##e
v11
exception
runtime
##c
classname
v12
##t
##a
##f
facebook
class
ui
value
text
jumbo
le
##b
arraylist
##2
range
##r
api
activity
##l
screen1
##i
##x
##o
json
##0
##p
##n
v13
##y
map
##1
expr
##m
to
data
float
appybuilder
##k
tostring
##4
long
mtt
##h
##g
##q
##z
##w
##3
##v
##u
##j
aget
ne
throw
catch
zza
integer
this
lo
##8
v14
utils
##6
gdx
badlogic
math
##7
net
##5
impl
youngandroid
##9
zzf
drawable
jsonobject
and
0x2
ii
xor
model
##manager
intent
iljava
modulemethod
v17
##activity
itextpdf
apache
iterator
valueof
v15
jackson
fasterxml
measurement
imo
flsp
broadsoft
access
http
##type
pcsoft
wdjava
lfr
interactivemedia
database
components
length
##view
dcloud
sswitch
la
monitor
zzai
zzao
mobile
zzal
zzap
zzan
zzaj
appinventor
get
charsequence
p4
firebase
concurrent
u0001
builder
u0000
file
zzb
lib
v18
client
landroidx
pdf
games
analytics
lcn
byte
base
put
##listener
bundle
11
collageeditor
collectmaker
photocollector
u0004
u0006
eq
startapp
10
u000c
hashmap
u0002
##info
equals
u0019
v16
ge
log
u0003
v19
publish
databind
u00bf
jv
u008e
u0011
res
pairwithposition
u0005
double
u0008
u0082
u000b
u00f8
u0016
u001e
u000e
u00ef
u0012
u0014
u00b4
u00a3
u00c8
u001d
u0013
u00a9
u0083
u001b
u00e5
u001c
u00ea
u00b8
u0010
u00d0
v21
u00e0
u00a1
u00c6
u0087
u00b1
u00d2
13
u000f
u0081
u008a
u007f
u00b9
u009c
u00f7
u00ed
u00f3
u001a
u00e3
u008b
u001f
u00d9
for
u00d7
u00e8
u0015
u00ad
u0094
u0007
u0017
u00f0
u0018
u00e1
u00fe
u00f1
u00b7
u00d1
u009f
u00a0
u00ab
u0084
u00fb
u0096
u00a2
u00c2
u00d8
u00ba
u00aa
u00cc
u009b
u00f5
u00f9
u00dc
u00be
u009d
u0099
u0085
u00de
u0092
u00c4
u00b6
u00eb
u00a7
u00ce
u0086
u00e4
u00cf
u00e7
u00c9
u00df
u00ca
u00c5
u00a5
u00ac
u00ee
u0091
shaded
u00d5
u009a
u0089
u00cb
u00a6
u0088
next
u00bb
u00bc
u00cd
u00af
u00a8
u0098
u00e2
u00a4
u0097
u00ae
14
u008f
baidu
u00e6
u00b5
u00fa
u008d
u00d3
u00d4
u0095
u00fd
u00c3
u00bd
u00e9
exoplayer2
u00db
u00dd
u00f6
u0080
u00c0
u00b0
u00b3
u00b2
12
u00f4
callcontext
u00c1
auth
u0090
u008c
u00ec
u00fc
u00ff
u009e
media
ai
u00c7
u00f2
u00d6
##er
u00da
exit
sub
type
##id
##ed
mul
0x3
u0093
15
vungle
zxing
intnum
styleable
llist
v20
chess4ever
textview
zzcl
animation
set
recyclerview
aww
lcde
ex
handler
spongycastle
id
heyzap
fstring
inmobi
lpegasus
of
reflect
iris
alibaba
bitmap
catchall
##adapter
17
setandcoerceproperty
18
publisher
zefit2
mykronoz
morososv1
bukanoor
v22
views
location
service
screen2
throwable
pos
applovin
zebra
size
co
game
super
commons
glide
nio
##ing
ibinder
gson
zzc
lmkisly
##exception
library
bumptech
main
getter
restaurant
0x4
##data
lomnipos
appbrain
##handler
##impl
high16
##helper
19
github
tapjoy
or
1a
lappinventor
lb
device
ad
lic
##service
licleader1
zzd
20
browser
message
1f
parser
1b
uri
opengl
val
adobe
##fragment
menu
asn1
viewgroup
1c
ioexception
resources
andengine
layoutparams
sharedpreferences
u093e
lprocessing
bugly
1d
batik
dagang
nexacorporateplus
tag
21
dialog
1e
bean
mediation
webview
22
lnet
yandex
ilandroid
metrica
lrx
recycle
##utils
request
p5
adcolony
lokhttp3
flurry
protobuf
cursor
clinit
v23
ljavax
make
adapter
getstring
23
24
##list
##callback
lez
fill
time
2a
28
paint
webkit
div
services
procedure
jaudiotagger
ea
v24
appcompat
values
drive
##state
snappy
25
quiz
26
##name
push
appypie
db
leanback
0x8
goder
titanium
design
27
cloud
32
##request
29
button
lt
not
appodeal
netty
unity3d
charts
imageview
pm
rect
mainactivity
##factory
lambda
##layout
controller
u0915
zzg
security
nexon
runnable
30
maps
ob
dt
agent
function
lkawa
syncfusion
version
decoder
close
0x5
stringbuffer
tagmanager
error
kv
2c
##dialog
umeng
zznn
zzlj
zznw
2b
xml
##builder
u0930
100
bytebuffer
sqlite
squareup
datamation
magnuscon
layout
collection
2d
zzpy
pair
style
u094d
zzvc
lc
2e
upsight
zzaex
method
fastjson
zzafy
2f
zzagc
lme
##result
charting
mikephil
enter
home24
ironsource
iflytek
ljp
symbol
##util
lit16
edittext
##wrapper
video
illegalargumentexception
kawa
##event
music
igexin
isempty
lkr
microsoft
newsticker
crypto
35
engine
material
load
msdk
hippy
lge
31
amazon
empty
33
joda
paw
false
modulebody
0f
teamonestudio
constraint
inputstream
switch
##value
readresolve
yail
attr
system
##controller
color
audiomp3
##options
extension
cmp
framework
34
proguard
jsonarray
zzj
zzi
hasnext
zzh
appcelerator
state
36
chromium
parse
top
mopub
v26
##item
channel
bluebottle
zzl
is
chartboost
0x6
alertdialog
v25
##map
logger
wearable
editor
config
src
batch
tt
sqlitedatabase
##error
##context
zzk
cordova
tmp
pc
the
38
cache
proc
zze
status
37
39
inneractive
be
aa
field
estudiantescudep
angelrosario1191
mintegral
zzm
youngandroidproject
okhttp
barcode
safeparcel
parcelable
##config
exoplayer
sonetel
##client
ac
format
rfid
fragment
de
##renderer
fyber
homematic
wallpaper
creator
aograph
notification
40
locale
run
pts
entry
in
modules
session
##mode
bylu
interactad
##ad
build
st
window
fr
provider
kidoz
home
crashlytics
name
findviewbyid
3c
u0947
widgets
live
busquerysystem
v27
3a
debug
functions
##compat
3e
remoteexception
atomic
clearcut
null
##base
##able
messages
nimble
action
lkotlin
3d
stream
3f
protocol
thread
relativelayout
3b
v28
mg
41
lti
adapters
solver
##et
camera
ae
p6
component
monitoring
xwalk
aircon
filter
jf
quickgame
buffer
wydatki
af
enum
date
edit
source
async
getinstance
42
##task
api3
thirdparty
lco
##reader
0x7
bo
ldagger
proto
packed
linearlayout
rectf
weather
reflist
##size
u0938
##drawable
jirbo
44
##message
##response
player
0xa
event
u093f
do
43
0x10
gt
gtm
url
image
obtain
46
##provider
containertag
49
reader
45
stat
printstacktrace
shl
server
urbanairship
lifecycle
nineoldandroids
ref
##button
##code
driving
path
plugin
ff
u0928
crashreport
mazapps444
scenes
scene2d
corona
settings
callback
v33
rabbitadventureworld
lody
vasco
transition
##position
48
##le
textutils
##object
canvas
audio
##file
pdk
ansca
inject
caomobilesdk
##al
utilities
appnext
u0924
newrelic
47
qrcode
fabric
##proxy
getclass
network
##set
char
hf
spelling
domingotambasacan
bisoft
magmamobile
wrongtype
##count
unity
motionevent
collectionview
ab
mobage
feature
logging
illegalstateexception
lottie
share
allmodifiedapp21
rabi361361
61
download
operation
places
response
constraintlayout
ltz
open
ba
mediationsdk
jsoup
meizu
4b
plasticos
injecao
manieri
moacir
code
4a
tpush
##buffer
airbnb
internet
arch
leonardomo2016
saca
50
##es
koushikdutta
##style
write
##log
##webview
4e
v29
nepallicense
shaharbindra
greenrobot
b4a
##color
pushsdk
4c
hashcode
gez
skyarmy
sensornearcover
jiguang
attributeset
weakreference
models
info
fisionsoft
62
ordinal
cipherlab
stthis
0xff
nearby
taobao
task
actionbarsherlock
im
entity
60
4d
56
u0940
writeint
5f
pjsua
cricketpredictor
laxmibhukta
v30
instafilter
runtimeexception
codec
bank
sem
costa
lanywheresoftware
eduardo
musica
rivaljo
##parser
account
node
52
##field
renderscript
trimble
u0939
metadata
ilcom
setvisibility
u092e
##text
##key
ag
millennialmedia
54
##connection
bytecode
##url
##array
sy37sdk
biginteger
appcenter
4f
legu
##cache
iz
champs
click
##line
lmono
##ion
51
55
65
air
v36
##path
appboy
##width
teloor18
radiojazzsuiza
clear
##params
foundation
key
fitness
bi
settext
g3d
66
##thread
##00
##enabled
remove
onclicklistener
thinkive
53
58
##at
lextern
huawei
##image
distriqt
lmd581985d7f357d4d8f9c2df74de1eb7224
##action
67
##time
0x9
connection
httpurlconnection
call
64
sencooud
getresources
pk
v34
pjsip
##filter
##string
form
getname
##ation
free
5a
##or
fingermind
whisplib
63
matrix
iiii
busquery
endgame
wbus
wallpapers
##node
resource
apps3022
avengers
regex
pandora
tts
simpleframework
greedygame
short
outputstream
bouncycastle
extractor
##delegate
##writer
a1
payment
iii
scandit
ss
59
##loader
application
##bridge
mnrepl
mnis
mnthe
qb
socket
cmpl
u0902
##index
mraid
protocolbuffers
remoteapi
tysdk
viewpager
gp
mode
crash
intvalue
5c
##height
##tate
v32
##module
##ic
viewholder
##status
practicals
org
##content
googleapiclient
pearlapps
pushe
57
inicio
screen3
menuitem
charset
##ate
cc
ar
gpu
##ervice
as
68
smtt
manhattan
banner
true
ronash
adview
mapbox
mobads
platform
##holder
checkers
digipass
control
types
u092a
dom4j
failed
calendar
no
##queue
pdfname
pcpe
u092f
invokes
eaglepeak
module
aj
environment
from
item
login
moat
ltwitter4j
stocks
##box
lit
bb
estmob
contains
v35
lit0
creativesdk
5b
##in
materialdialogs
abc
afollestad
zip
bii
lrg
5e
iiiiiiiiii
backgammon
##api
##imageview
picasso
##animation
scanner
5d
lock
read
bc
methods
##te
br
##changed
taekwondotheory
vladalas
v31
looper
##re
okhttp3
mm
toolbar
ah
at
frame
iap
element
commonsdk
rn
id3
branch
##token
ressources
an
linfo
am
##ce
framelayout
consumer
##header
v37
board
##bar
zeppelin
toy
width
factory
0xc
ca
zapp
preference
69
md
photo
connect
locks
hashset
group
hardware
71
plugins
kayipkayik
droppingmap
qbb
height
ay
deser
u0932
000
zzq
lde
update
localytics
##plugin
g2d
magnetadservices
zzdtt
proxy
getmessage
72
typedarray
##engine
pubcoder
##ize
##group
downloader
listener
accessibility
ushr
6e
actionbar
##version
ce
##0000
75
container
interfaces
mediaplayer
messaging
##format
az
70
refer
fragments
eyougame
bytedance
sparsearray
openadsdk
0xb
contentvalues
u0935
arunboy845
##tor
karo
lb4a
ssl
p7
number
ormlite
76
j256
dd
wallet
getcontext
helper
dom
mayacal
azure
annotation
position
nend
6a
theme
74
u094b
compress
bd
adjust
putextra
supportui
distribution
dimen
##method
iabhelper
adscommon
js
##parameters
substring
readint
scannercontrol
lmtt
slib
##ype
##settings
ij
show
al
packagemanager
ak
##us
admob
layoutinflater
0x1f
##to
cb
##interface
xmlpull
mc
job
##ct
lobbyactivity
toast
pattern
esotericsoftware
##app
bf
point
ap
lokio
presage
lextensions
input
label
6b
thrift
zemos
events
getvalue
73
6c
sephiroth
0xf
smart
mapapi
qq
onesignal
manager
greendao
table
appsflyer
descriptorprotos
0xd
av
##nt
lbr
lu
tendcloud
tenddata
##inputstream
webrtc
##class
##bean
##configuration
##ment
max
transfer
##sdk
getint
tracking
a2
beacon
listview
##ure
operators
jpush
configuration
obfuscated
##player
create
aw
78
jacobscitrus
stetho
sunmi
0x18
maker3d
ticket
kroll
yijiang
77
dhinterface
apps
##se
with
##op
displaymetrics
##tracker
clone
6f
bj
##entry
85
calls
dao
alipay
card
collections
##ts
aly
yaq
mp4
params
0x20
pgraphicsopengl
instatextview
enums
jcodemodel
mp4parser
deviceapi
dialoginterface
79
v45
ec
lang3
lbo
booleanvalue
##14
weibo
##pool
onclick
encoder
transact
jvm
options
nostra13
v38
80
introspect
writeinterfacetoken
classcastexception
##on
user
display
search
printstream
googleplay
street
timeunit
unsupportedoperationexception
86
##entity
adbuddiz
0x3f800000
likeupdate
mrinalkantibasunia2019
pointf
revmob
billing
atlas
##tion
craps
gcodingllc
setting
au
oncreate
tantanapp
npaccount
stub
helger
taf
purplebrain
##10
##point
sina
rscja
mato
inca
82
6d
crittercism
##ent
87
7a
##end
##session
on
##2d
opencv
overlays
ic
##ty
83
permission
referral
84
##ge
tv
re
##ar
##receiver
ggo
nullpointerexception
animator
assertionerror
dialogs
0xe
misc
googlecode
jsonreader
##ng
mansinghkushwah9752
socialscience
88
omi
##element
getactivity
basestatistic4
pay
##nd
bestphotocollagemaker
naturephotoeditor
naturephotomirroreffect
##ll
gtz
jyoti
surbhi
shivimomo123
aq
interstitial
http2
mcontext
tool
bg
ax
##model
opentok
zzge
project
xiaomi
png
light
neg
readexception
lit9
writevalues
##stream
##observer
androidsdk
datamodel
character
jsontoken
##decoder
atomicboolean
7c
81
##property
lif
splash
vlayout
##offset
shr
##ff
classloader
dynamic
q0
##ter
getwidth
album
##ljava
luk
##act
pujia8
out
u0948
tracerplus
renderer
archivers
radiostream
ctt
##de
external
left
##android
zljava
agentweb
font
callyailprimitive
##table
conn
##bitmap
level
vast
getapplicationcontext
scheme
##ck
m0
jj
##ly
hellocharts
##descriptor
arraycopy
runrev
by
##extension
filedownloader
7d
nexage
##menu
sqwan
accs
default
sourcekit
register
geeyep
min
7f
rem
u0003u
7e
##source
##properties
90
u0926
bytearrayoutputstream
awt
lbolts
llecho
##channel
0x11
getheight
phonegap
split
##ap
##eventlistener
objects
cd
imagepipeline
##st
v39
w3c
articlemodel
activities
texture
lsdk
currenttimemillis
a0
framed
cropper
##location
scrquiz
7b
92
lejiagu
upstream
##ver
pendingintent
xm
##sh
backends
spdy
##lock
addtocomponents
facade
charat
coordinatorlayout
police
##it
##videoview
title
bottom
##frame
delhi
malviya8
suryaprakash
##runnable
##ettings
ao
##tag
89
overlay
##as
harvest
bitmapfactory
liulishuo
##rect
##11
##ator
##ch
##il
##um
notificationcompat
200
moogle
nativeobj
getpackagename
zz
excelliance
tasks
writenoexception
header
query
managers
mobileads
token
equalsignorecase
serializer
cmpg
delete
ascii
purchasing
8a
0x12
##internal
print
simpledateformat
screen
##ds
writetoparcel
variable
cf
##an
startswith
8b
bt
typeface
asobimo
volley
##18
zedo
bluetooth
##bounds
progressdialog
0x80
mono
clipper
##ex
lit5
lobjects
##video
hockeyapp
##number
appcompattheme
u091c
v40
createfromparcel
linkedlist
##length
score
executor
writestring
##all
##000000000000l
felink
##os
##30
printer
##call
setonclicklistener
##outputstream
addcomponentwithinrepl
0x14
##logger
solitario
wdobjet
94
has
melele
enforceinterface
must
componentname
98
transaction
arrays
textappearance
a3
general
sticker
writer
hz
hms
xmlpullparser
manifest
constants
mapboxsdk
jljava
##record
95
##int
##deserializer
fre
##board
lidroid
english
xutils
##ode
right
91
##ata
addview
##body
barcodepicker
dc
##3d
drew
getid
list2
matcher
##device
warren
inspector
cn
apply1
##en
##db
valueanimator
invalid
0x15
activate
easylevel
hardlevel
readstring
icon
websettings
8c
standard
u0917
93
96
web
8e
dot
count
bm
cibil
one
##ry
99
just
getcolumnindex
base64
1555689874002
45418772163660126
lit7
comm
bl
select
gettext
ssssingh5566
vector
oned
b0
##application
##uri
reward
ser
command
purchase
signin
##intent
a4
##ॱ
evernote
putstring
9e
exists
selector
##executor
##12
8f
edmodo
##interstitial
con
containskey
hq
0x3e8
switchmap
##ip
##ss
colorstatelist
p8
qr
##20
sparse
nn
97
##orientation
dena
##strategy
8d
nativeads
std
##core
learn
i18n
khronos
microedition
bu
##clicklistener
monetization
views4views
bv
da
answers
##ist
sabbirba10
lit4
##up
##ctivity
decoderparams
apkkajal
english2
zr
fileoutputstream
sns
snapshot
appentry
bp
##changelistener
u092c
##out
marketing
##input
b1
javatype
collagelib
##font
html
xsilibrary
9a
iiljava
0x64
ooredoo
loader
##ne
c0
##container
post
##izer
value1
jsonparser
crop
##34
cancel
mtl
java
libtest
cannot
##age
##ow
v44
##om
umslibrary
##parameter
typemanager
##instance
imageloader
preparedata
mr
##row
egl
execute
ginnungagap808
huskywinterlivewallpaper
b5
asbinder
##listview
photoview
phone
##overlay
##attribute
pdf417
0x13
vn
mdev
##el
jsonexception
##component
timer
livedata
properties
current
getsystemservice
jp
daimajia
robiinternet
socialbase
goolbd
##option
##background
chart
eventdispatcher
slider
binding
ji
##picker
##title
tk
##handle
basic
parseint
##is
##notification
generator
##ee
vivo
##ads
queue
sampcharactactivity
u091f
httprequest
plus
crashes
reports
##ve
utility
##details
handleseventdispatching
bk
lair
##behavior
cervezinhox
monitordehurcanesyt
bufferedreader
niti
vidur
##metadata
engines
shivamrathore7566
bs
contact
bh
particles
##exp
windowmanager
vo
##16
##pt
##res
##ity
feedback
payments
rendering
act
##64
multiplayer
strings
##io
disklrucache
bq
avid
xmpush
formats
##operation
executorservice
neatplug
contentresolver
campaign
fetch
longvalue
##function
integralads
dp4mobile
realtime
unknown
u3d
universalimageloader
a6
setter
9c
appstream
##click
impressao
##ef
membersinjector
u0941
startactivity
consoliads
d0
jsonwriter
description
##ies
bytestring
##level
editable
storage
bn
##28
0x1t
mnto
optstring
property
futbol
indexof
efrancis85
dns
##matrix
ts
package
9b
surfaceview
v46
observable
jb
unsafe
imagebutton
boxes
zzo
300
boot
##preference
ed
iinterface
threedimension
chip
datamatrix
##range
gwadsdk
##iterator
##48
mobileapptracker
native
detector
getbytes
##32
wxop
iilandroid
getkey
gameworks
fragmentactivity
##13
##91
keyevent
doionline
constraintanchor
##23
tc
##banner
##port
appsknow2018
##of
linkedhashmap
jaxen
samsung
process
mykashmir
androidmapsextensions
updatesdk
bloodpressure
c2
gk
techguru7006
##lib
##24
9f
iid
##000
9d
bind
##ting
df
applicationinfo
dataholder
bw
ewdpropriete
wifi
index
e0
stories
background
0x17
##bytes
uuid
makeroid
##margin
##address
##39
porterduff
printwriter
##ession
##padding
0x0t
##36
##change
adsdk
bz
theartofdev
ee
##encoder
gbd
iterable
playlist
f0
droid
##fd
instrumentation
##ble
a5
getmethod
##icon
strategy
wapsmskey
digital
##command
##per
utf
tinker
xmp
floatingactionbutton
b2
qtproject
println
replace
qt5
prislyrozario0
mediarouter
##ui
appitup
spinner
guid
xbill
random
concurrenthashmap
searchview
processo
reference
##ay
bpcheckertestdiary
##theme
##19
##ld
##88
randomaccessfile
##no
safedrive
technokshitijarya11
##date
physics
touchimageview
##ial
bra
lrunloop
##start
##22
edge
##parcel
rangebar
imwebview
constraintwidget
##21
ch
##attributes
a8
reflectmethod
##15
##store
profile
##40
inapp
lsense
##dk
##resource
##vent
assetcryptimpl
eb
serving
box2d
##listadapter
appmachine
injectadapter
##44
packageinfo
udp
target
accounts
fb
##37
apptracker
persistence
##fe
atomicreference
aux
##timeout
zzbs
##control
##java
##update
##native
##rs
custom
##1f
signal
##02
hashtable
tls
unionsdk
##ba
##ey
ci
##landroid
##nce
eltex
##th
cropimageview
lsun
0x40000000
0x9t
##values
lman
youngcha68
##host
##3a
x509
round
abs
en
joiner
englishqr
lucky222000222
##50
##ab
##window
##layer
homeactivity
##ice
fileinputstream
atomicinteger
details
arouter
b6
mysql
##01
##ue
callbackcontext
0x3ff8000000000000l
##kt
can
##ke
compression
continuousscan
0x30
mobstat
gettype
##ialog
tablayout
callcomponentmethod
##load
lkwaai
newkode23
##spec
body
b4
##ics
apply2
zzr
##ur
broadcastreceiver
ecb
telephony
zzp
##ᐝ
##ary
iso
bar
dpslogcategory
bmeintegration
jnlua
naef
##bundle
recyclerviewbase
##msg
cp
##progress
a7
prime31
0x1a
laajdk
##ns
ue
##ol
onepf
apply
##25
novel
zzn
##directory
##ut
##indicator
microsensys
mraidview
adaptor
baidu91
appmonitor
dark
finish
bytebuf
qbcontext
a9
##processor
ta
##iew
kryo
0x1e
report
datatype
https
kyokusanagi
vector3
progressbar
adrequest
##detail
mnvalue
##17
fsui
cg
staggeredgridlayoutmanager
##tr
tess
##26
##screen
switfpass
adt
##esult
fa
##ction
b3
cookie
u0936
ld
fc
trim
intentfilter
400
b8
iab
interstitialad
rnd
##ˋ
store
##label
cu
distribute
##description
ics
cocos2dx
lservices
androidnative
gemalto
bljava
##float
advancedactivity
##65
##millis
##rate
checkbox
sql
##get
##generator
##back
errorcode
watchandengagesdk
##monitor
oms
fd
p9
##server
eg
##33
statistics
initialize
lit6
mnform
shape
##31
##adview
##7b
gs
##textview
defeitos
androidquery
##reference
solucoes
##gn
0x19
sprite
##long
##lite
rs
tree
##region
local
adapterview
mnnull
lookupglobalvarincurrentformenvironment
stthe
##detailsfragment
bigdecimal
bx
##parcelable
##dir
##complete
##target
##tree
genericproc
future
savedstate
glutils
##80
rss
okio
lit17
malik24
osooyorobotcarfinal
zubair
##socket
btn
lq
intrinsics
##ac
c4
##template
sdcardmanager
onresume
##boolean
appevents
play
##kat
##38
b7
getboolean
##59
applytoargs
##ame
global
##og
customer
identity
send
##90
fe
viewparent
##63
animatorset
phonenumbers
##46
triple
##ile
##rt
##ted
##70
biharboardtenmcq
jobqueue
objectanimator
popupwindow
wup
chatactivity
##events
consoleplay210
customviews
language
channels
te
##req
##ext
lanet
##cf
alarm
b9
##ms
handle
stem
##page
ghafla
bluractivity
googleapis
jackpot
##agent
luckykickapp
##output
reggaeringtonessoundsfromjamaica
##ha
remote
functionwindow
alinosapps
websocket
dannygravity7
smrtbeat
cr
bugsnag
birbit
c1
release
##top
banners
mnenvironment
zzcq
drawerlayout
expression
##tring
##popup
crun
##feature
dl
##un
getpackagemanager
dualspacecloner
parallelspace
##dd
ereader
concurrency
ef
##dao
##sactivity
armaan
ringtone
nynforyou
den
speedyfish
importdchb1b
##ia
##presenter
achartengine
actions
##paint
##ea
ffff
##47
##services
##headers
ext
gpuimage
##ok
##animator
sencloud
0x16
##ca
ft
##right
##66
myswoar
me
##62
sniglets
swipe
gpufiltertype
##eb
##report
##2f
##policy
##cc
##ag
##mgr
##left
##face
freobject
viewtreeobserver
videoview
country
enabled
appliedstatistic2
gridactivity
reset
##tyle
##extra
##35
vending
wdresfct
##async
asynctask
##tart
mat
##98
document
zzx
##3f
d4
zzt
##ot
gallery
c7
ingestion
example
output
##ayout
mtx
0x3f
osi
##ization
##cs
textinputlayout
getsimplename
theory
##me
could
##nk
forname
roseworld0000
##dc
##ers
gui
orientation
class11
cuneelsd
limit
parsablebytearray
photoviewattacher
tr
examvishwa
v43
0x40
c3
jobtodays
##45
na
graphview
##95
dispatcher
sound
##callbacks
hook
zzu
andrestorodesing
countryclassic
gcm
v41
zzs
ringtones
thrownbagelstudios
krolldict
maker
monodroidaddreference
monodroidclearreferences
registration
drawer
livedarshansai
##ec
##visible
dnyanraj
##09
homkar22
c5
##transaction
zk
generatedmessagev3
parameters
export
sgbuilder
##cardview
lapplication
##94
##27
##57
cine
asn1objectidentifier
##tatus
receiver
dbinfo
##link
09noriega
paola
##1a
templayer
ck
windowsazure
##be
c6
ondestroy
httpresponse
##42
servicemethod
##a1
zzv
nxlocale
pservices
##7f
navratri
photocollagephotoeditor
##ect
##are
##order
##webviewclient
##down
pdfobject
##environment
extra
pgl
u0925
annotations
##finished
maio
mojo
mousecontroller
##cy
growthbeat
mixpanel
logincenter
##category
##scale
0x1c
##ro
isoft
cardview
digests
##ri
readstrongbinder
adunit
c8
elements
##center
colorpicker
##93
mediabrowserservicecompat
##edittext
##framelayout
neutral
##am
##red
remoteviews
decimalformat
500
##byte
datepicker
##fo
##json
menubuilder
##nal
d3
addtoformenvironment
##support
d2
102
##shader
##istener
notifications
##timer
newarray
##fb
##pe
##supportfragment
##cb
##ector
ie
ga
##pattern
##storage
eventbus
viewpropertyanimator
activity1
##55
##tp
cm
v49
##ragment
dash
getjsonobject
files
culture
publickeytoken
starter
tabsportsnewactivity
##vo
fab
d6
##3c
constructor
stack
nativead
getchildat
checkparameterisnotnull
hls
perf
entryset
courtcasestatus
tolowercase
descriptors
route
##downloader
poojanaik895
seekbar
success
##06
f2
lit22
##subscriber
dataeye
##4f
attributes
zzcz
tpconnect
execsql
##eader
##41
##ae
##68
preferences
radiouniversfm1013
##77
getlayoutparams
heyleenmpulgar
subscriber
r0
##ma
zzcu
dp
mediabrowsercompat
metrics
##ive
wdhf
##29
c9
constraintset
expanded
activityinfo
inflate
##widget
##net
##errorcode
##99
nodes
et
sdkbox
##07
##param
##package
social
templatecollageactivity
##card
bridge
it
messagedigest
##53
d1
restore
was
##5f
comparator
##2a
##85
rx
textfield
##from
imobile
sdkads
cobject
##ob
##fc
called
youtube
assetmanager
test
ironsourcewebview
lit19
v42
zzct
bbcradio5livesportsextra
u2013
coremedia
use
##1d
address
neivasalazarvalda
##99999999999al
enable
lapps
ep
##54
dcloudimageloader
axg
bound
enhance
onerror
##equest
##pair
writestrongbinder
valide
##ase
livegameactivity
headers
##4a
##83
ing
networkinfo
getlong
##cd
putint
##pos
##800000000000l
scaletype
##erializer
flags
normal
unable
##progressbar
category
asm
##da
u0942
track
##texture
##60
androidsvg
asf
gif
##58
caverock
dismiss
##2c
mod
##ps
##43
dispatchevent
##56
hx
unlock
##apter
##6f
##92
##69
##ep
deserializationcontext
timeout
##fa
##8b
jni
multipart
##account
cardboard
addall
##nfo
lit11
pdfdictionary
vrtoolkit
zzbp
##form
getparent
##nc
##viewcontroller
d5
bindings
monitoringactivity
##4c
##reason
svg
d8
page
##3b
fi
##iz
ski
imagezoom
##httprequest
encode
zzaa
leoramirezapps
billingclient
connectionresult
lbsdk
fullscreen
official
contacts
found
lrapid
zzcp
e4
##ated
cuebiqsdk
zzcv
appyvet
##ii
percent
cuebiq
pendingresult
zzw
0x22
cq
geom
cert
pro
##ition
u092d
##9a
alpha
senab
##84
insert
zzcs
zzcw
setlayoutparams
zzaf
juniorlab
suspicionbook
axf
banner3d
##listenerimplementor
ct
u0927
var
##com
##ao
##b8
cj
immersion
##ix
transactions
fp
cs
gamesclientimpl
fl
##4d
gameanalytics
midtier
##flags
##ock
##89
horizontalarrangement
picker
toolbox
ldo
pulltorefresh
mtrl
onpause
##rk
##ant
numberpicker
##6e
##collector
headlines
calculo
##preferences
##52
##loading
##bb
##51
items
maddenmobile15
flixweb
kl
swiperefreshlayout
##f8
##ni
##ain
codedoutputstream
cyberagent
0x1d
gesture
orm
tab
extensions
litesuits
dataprocessing
##num
mediasessioncompat
onlinegame
downloadmanager
zzcx
chunk
param
##creator
getaction
mb
flush
##serializer
##ence
sendmoney
##null
##enum
reporting
zzcy
latlng
opensdk
screen4
tech
zzz
radio
businesscenter
d7
zzae
patch
ycj
videolibrary
##fields
fav
##chart
e5
us
##ifier
e6
##04
calligraphy
##e0
closeable
lit21
webplayer
ib
##overlayview
features
zzco
##82
srfi13
chrisjenx
uniwebview
##61
decode
adc
import0e2435
rfidresults
value2
##3e
##6c
0x28
actionmode
hapticmediasdk
##interpolator
chessboardview
pj
getcount
transform
str
loki
obj
##ount
##failed
arturo
none
##b7
u0937
d9
interpolator
##78
##ring
gameactivity
modifier
##marker
##bf
##76
##75
##08
0x32
addtoevents
aspectj
getx
##zone
##ie
utilcode
blankj
assets
stringappend
tj
##5c
##bottom
cx
##day
0x1b
##03
##read
##chooser
##ource
##ify
lchuangyuan
##c0
isomorphes
f4
e1
##lcom
lit14
vb
scrsettings
u0921
memory
##gi
forqan
rate
##ft
e2
authoring
##lo
##period
ra
crashdetailbean
##aa
exceptions
rv
tp
##by
##86
##ache
##7d
##gs
khayati
listadapter
majlesii
##child
fff
##selector
lretrofit2
axe
##identifier
##surfaceview
linearlayoutmanager
##ml
homebutton
##printer
deviceinfo
##ialize
0x25
drawee
evolution
lg
textpaint
dn
##elper
activitycontent
##74
##af
##tore
levolution
axb
##xception
setcolor
slidingmenu
gety
up
u091a
##mp
##apps
e8
##ped
##ger
chrono
dev
spec
xblink
##transition
settingsactivity
##rl
##f7
##ime
incl
limbrowser
##9f
spectraprecision
##views
blurview
iacn
song
bannerstandard
rectangle
sqlcipher
layoutmanager
lit20
##ide
##4b
##5a
##primitive
lruntime
u0905
impressoragolink
##word
jjoe64
pref
##asynctask
##sfragment
##track
##rd
##49
##bits
cv
##resolver
golan
##72
libraries
newinstance
f3
resultpoint
##query
stop
commit
##73
lit18
##history
dataoutputstream
jce
setbackgroundcolor
ethiopia
gestures
##pager
lfor
myname
attribute
concat
testactivity
##bs
app4joy
##ref
nl
snackbar
##bc
##game
callcontroller
reentrantlock
viewdraghelper
##folder
##recorder
lit10
onevcat
tracker
where
##ual
flyingfox
kr
e3
##dayactivity
##la
##binding
##radius
tygrm
v51
first
jsonserializer
##67
##browser
##pp
lit35
inappbrowser
##71
list1
vi
##0b
keyset
wrapper
##2e
##tream
lsargol
lbeshield
##87
axl
xamarin
##ker
zzad
shader
##new
getcolor
oss
##exploreractivity
##df
0x29
qu
gridlayoutmanager
##2b
photoeditor
##panel
getsharedpreferences
mpmetrics
##touch
600
zzy
##9c
e9
axc
lfgl
template
zi
##messages
leaderboard
##baseactivity
mutableserving
##mage
camera2
diy
iiz
##ement
slumber
##draw
##types
inappmessage
leightbitlab
lretrofit
packagename
##user
106
pdfviewer
jsonelement
dataposition
accessibilitynodeinfo
##chronology
fn
jz
classtype
##ities
##created
##hed
altbeacon
##sensor
invalidate
0x21
##a0
imagelib
f7
p10
jsontype
cl
flashlight
antenne
##sion
##px
##ˊ
arraymap
fragmentmanager
##c4
lqb
##detector
##0d
##flag
progress
##4e
##ression
0x100
allanvallejo
##0c
requery
e7
##f0
getabsolutepath
##ling
jsongenerator
##b0
##8c
##8f
##rn
getobject
##a8
op
pluginresult
aze
ॱॱ
registereventfordelegation
104
iwebview
##5e
keyframe
safeparcelreader
ev
colintreelistview
rangenavigator
keywords
##inflater
##main
swipelayout
##81
advertisement
epubviewactivity
jy
##5b
##formatter
lit50
anim
axj
lit13
doublevalue
##666666666666l
##7c
getwindow
mrs
##ew
##gator
##fs
appstore
chat
timestamp
##hf
axh
customview
lit15
##ments
while
bjpdpmaker2019bjpphotoframe
butterflymobiapps
je
##network
##one
fastadapter
xquery
edittextviewbasenew
##gridview
##cent
getpath
##7a
##f4
openvpn
offset
aztec
v47
axi
region
##fieldkey
activitychooserview
appid
##job
extraerrors
##display
gettime
##hc
pushnotifications
controllers
##a2
blinkt
##videoactivity
acra
sax
f1
##79
##wn
du
##allback
f6
105
wand
##hi
##closed
##mainactivity
barteksc
cha
lee
lookup
##ls
adyencse
viewmodel
ohdoqh
settitle
##uy
##focus
f5
getstringextra
ucrop
##collection
##d2
pgraphics
##test
##cccccccccccdl
##e66666666666l
axk
draw
##lk
resolveinfo
panel
pedometerapp
stepup
wdreserr
binder
eh
ladyen
ht
i0
##part
lexpressions
##bd
108
ti
images
record
audiotrack
unbound
cz
##ner
materialdialog
settextcolor
##ua
##char
save
v53
##8e
##direction
##media
##datasource
lm
mid
sparseintarray
aliyun
available
ironmonkey
##e5
rule
##js
##d5
maketext
signalruntimeerror
##97
##vigator
ok
traininfo
##try
refresh
getproperty
activitymanager
sms
##ngine
##han
pdfcontentbyte
0x2e
101
getdisplayrepresentation
##ik
dendritas
##viewholder
0x3c
temp
##5d
padding
##c2
##span
you
##0a
zzsp
##work
hh
x5
row
##c1
env
##der
##login
103
unityplayer
perkd
##md
jceinputstream
line
##scroller
pool
linearlayoutcompat
##ace
##setting
adaptorbusstop
typedvalue
##ess
##available
##d8
##future
##selected
er
112
su
connected
##permission
##series
v48
getintent
##b9
##toast
bitmapdrawable
##400000000000l
##adrequest
##database
other
drm
##7e
abshlistview
iro
1000
axa
bitmatrix
##d0
lit29
lvn
##f6
##733333333333l
##ub
touch
##osition
screen2multistreaming
##listactivity
llayaair
128
ip
##iv
##dr
lit27
googlemap
mediacodec
disconnect
gorodaimon
lit23
bufferedsink
##dialogfragment
fx
gamefeat
##nativead
entitlement
##matcher
##6a
postoffice
##a5
importg24gb4
asset
fileutils
##c9
##ont
zlcom
watchandengageactivity
rb
##weekactivity
##gesturedetector
##d1
biz
launcher
err
function1
iilcom
##9d
##ai
##ids
##si
getclassloader
getdrawable
##art
f8
switchcompat
##eed
##jo
nu
##metrics
##6b
scheduler
yalantis
qy
signature
velocitytracker
luastate
slidinguppanel
0x2f
basicinc
##items
lit28
mnlist
getview
##tem
capturer
##utility
##xy
ey
joins
0xc8
iitemactivity
stats
##implementor
addtocurrentformenvironment
preconditions
##sharedpreferences
dq
setthisform
##invoker
0x27
0x2c
114
atom
lmovements
ry
threadlocal
dg
gridlayout
serializable
zzas
fo
already
figurecolor
##duration
ane
listpopupwindow
##loaded
browseview
getchildcount
##e1
##im
dx
v50
##adlistener
timezone
##ine
125
##sink
##rawable
pshapeopengl
zzah
116
lit24
errors
fragmentmanagerimpl
homescreenactivity
lit41
f9
##cursor
##scanner
copy
weakhashmap
asn1sequence
##mapper
authentication
##sequence
##f3
zzfo
##batch
##chunk
bitarray
##0f
stopinfo
debugconfig
mtunnel
scrollview2d
matoid
##alignment
##visibility
107
dm
##bt
u2500
##transform
allocation
downloadspk247
measurespec
enumset
##9b
lit31
single
voipclient
##96
##ready
loopj
0x35
aligame
disabled
##333333333333l
##scrollview
telephonymanager
txt
##axis
##d4
##tt
##8d
##dimension
sequence
lit36
##b5
cipher
lastfm
##b2
##icate
##information
##dispatcher
##gesturelistener
##placement
##block
##side
audiomanager
ftp
what
battery
##8a
##a4
110
kustom
##mi
##trategy
unexpected
my
nczx
xbbzf
##completed
jsonvalue
##d9
lit25
##atch
destroy
##d3
duration
0x400
##led
datetimefield
jlorg
ws
##extractor
##6d
##c00000000000l
inm
##ptr
##first
##started
0x7fffffff
u090f
layer
##dp
formatter
zzla
lanetwork
##a6
lookupinformenvironment
setcontentview
##way
parsing
##b4
##ard
##dapter
vector2
##eight
johnpersano
lit12
supertoasts
##0000000000l
118
priority
0x7f
gg
##e3
getcdr
indicator
##a66666666666l
##do
##ta
zzab
##ort
##bytebuf
##istview
##spinner
digest
##d6
mmusia
inputmethod
parseobject
stock
viewcompat
##games
700
join
testing
##c3
es
hsdpa
ecblocks
principal
##checker
##d9999999999al
##fieldtype
##b6
listeners
##httpclient
##registry
flag
127
appdata
simplecropview
##ute
##ʻ
isseiaoki
##c8
compilation
loginactivity
compareto
##monthactivity
labs
tz
decoders
myaction
treemap
##f2
##names
mhandler
##managerimpl
last
cvalue
zzac
##manifest
td
davemorrissey
subscaleview
hlwrn
ngsb
tacticsdetalii
##ries
scheduledexecutorservice
##process
complications
fieldtype
recycler
##05
##e6
emitter
slidingpanelayout
##c5
##9e
##converter
cfg
lflar2
##tab
10a
ut
lmd51558244f76c53b6aeda52c8a337f2c37
marginlayoutparams
datasource
inappbilling
jceoutputstream
111
##rer
vng
nxtoyauthmanager
##xmlparsing
##modules
##playeractivity
asn1encodable
122
faradayslaw
getcar
opengles
staggeredgridview
compare
stacktraceelement
##ser
accessibilitynodeinfocompat
buy
furko
zoltan1989
10f
##c7
##ax
hi
rj
only
##a7
##download
##rmation
##stance
charbuffer
find
galleryactivity
##ree
##scroll
scale
streamdownload
##camera
##od
##til
dw
declaration
superrecyclerview
##ove
##sed
##vector
gles20
iabresult
iobjectwrapper
list3d
##ian
##layoutmanager
ms
##b33333333333l
##implbase
cpu
##a3
dh
inputstreamreader
iposprinterservice
sfchart
checknotnull
finacial
jc
webviewclient
##go
mediacontrollercompat
##tz
123
zzbn
mncreate
0x2d
##interceptor
identifier
ontransact
##1c
##dv
cy
##lient
ot
offline
##init
##wer
lit30
##cipher
0x23
##active
cspanlive
mediapicker
nf
##c6
ka
output1
friendship
behavior
campaignex
zzjn
##priority
handlerthread
115
gl
bdemon809
##ocation
exifinterface
actionsheet
screen5
requete
unit
videoplayer
##hb
zzsy
comparable
zzau
vectordrawablecompat
u0909
permissions
dessin
szwcsss
##ping
##tracking
nativewebview
jsonlexerbase
dk
##unit
ek
##ification
gi
copyonwritearraylist
non
##v2
cmd
iapp
adsize
ayv
di
##play
##ht
##updatelistener
toarray
##dt
datetime
fenetre
pause
##dialogactivity
cw
countdownlatch
##e9
byteorder
rl
thebank
109
runonuithread
##b1
mikepenz
connectivitymanager
##constructor
##httpresponsehandler
into
lzma
##ection
##gf
##ror
##listfragment
link
dj
fei
bazawydatkow
##tostring
chingentsai
so
utdid2
##ath
keyframes
##prite
install
lobbyofflineactivity
##e4
##managerservice
all
##failure
dashboard
voxelbusters
order
rec
hui
120
getsize
toutiao
##e8
nativeplugins
##ios
em
hy
framebody
lbn
voly
##search
notfoundexception
aidl
fk
##trace
##ib
0x24
doinbackground
##endowment
sqnetwork
##fg
zzbo
closed
typesystem
zzme
##f33333333333l
fullscreenactivity
dataload
##8ccccccccccdl
##ful
##gh
113
supported
119
11e
fq
##e2
mutabledebug
tpcmsg
##lt
easemob
httpurl
stmt
baseimplementation
lite
mp3
networks
oauth2
##ler
##nder
exif
gtvlite
nz
ew
injectmembers
lmd59fb7be9446cafa9b7a19cbb5e9f74a17
placement
center
gradientdrawable
sphybrid
assist
##mo
chipdrawable
##b3
chronology
kaderhaldar
nativecontrol
pinning
popcorn
##kit
##modifier
##onnection
zzbw
##cl
lit39
parsecolor
##hint
##lay
##na
navigation
148
##ud
mmfruntime
v52
jpg
##s1
codeattr
##less
##stack
fail
love
##xtractor
pickerview
800
lmirror
subsamplingscaleimageview
0x3f000000
oncreateview
chessboardviewantet
iv
u0923
##rz
0x3a
appbarlayout
direction
10c
father
##sadapter
##access
products
sonic
gnu
lit26
rw
zhy
##ration
##segment
hc
clans
jsondeserializer
##webchromeclient
##menupresenter
technikatul
##d7
engineio
aex
msg
setalpha
121
actionbarview
##itude
fz
newsstudio
##ntity
sales
floatbuffer
fun
postdelayed
##move
missing
##ox
##eventtype
##que
lit37
tracing
zzag
ro
floatvalue
callable
mv
segment
##ku
chrome
10e
onstart
##ices
zzbt
pmatrix3d
qg
viewbinding
##hashmap
##ead
chessboardviewnodrag
dateformat
downloadlib
cii
adpreferences
##9t
handmark
lk
##parent
hl
lit33
shortcutbadger
##0e
sslsocket
upload
##actionbar
##space
##ntal
##tions
pockettools
tobytearray
##calculator
appcompatdelegateimpl
gh
##scope
117
gc
s0
users
##tint
fragmenttransaction
xsi
collapsingtoolbarlayout
speech
surfaceholder
##ctor
##success
commonutils
##ask
##qw
erasers
crunapp
viewpropertyanimatorcompat
inetaddress
parameter
transformation
collect
##titude
0x2a
msc
##changedlistener
##gl
##ʼ
##ˎ
arg0
script
addglobalvartocurrentformenvironment
##dl
##ogger
hack
tiviewproxy
130
surface
vaidik
loading
##connect
##ebview
videocommon
##a9
meta
mn
##oader
##script
listviewanimations
nhaarman
xmlapi
##pn
vaidikfoundation
##editor
##eg
twitter
##6666666666l
##e7
##loginactivity
fieldkey
##ical
getcontentresolver
##push
gj
httpparams
propertyvaluesholder
##mediasource
u0906
##he
gesturedetector
oh
zzaci
##999999999al
u0
u0964
##min
cordovainterface
##ost
##ak
basesettingactivity
fields
kp
scene
##gorithm
cloture
v110
134
##een
communication
red
forms
0x3d
amount
conf
getmainlooper
##rules
addrule
ln
##tintmode
adtapsy
##xmlsaxparser
sip
##use
apppickerpref
hypotesesactivity
##uk
amplitude
lit73
setenabled
##library
keys
lz
paiement
uj
##f1
horizontal
##evation
##pacity
pdfwriter
v73
papplet
serializerprovider
urlconnection
validepaiement
##vi
0x50
match
nano
tabs
vastactivity
bitfield0
zzgr
##icy
0x26
10b
lit120
radiolistview
splashactivity
##andler
pv
xmlserializer
mediacontroller
##constants
nq
##eactivity
getdisplaymetrics
sensor
benimarunikaido
##ir
##f9
##initialized
##ko
##runtime
##if
menuitemimpl
sqlexception
0x2b
hd
delegate
lit49
jn
##ance
rsub
##ative
##urs
0x80000000
fs
gq
##ias
sc
136
multidex
##coordinate
lsevenzip
zq
##son
impressorasunmi
newbgview
##graph
124
easyandroidanimations
##broadcastreceiver
##asset
compoundbutton
lit40
textlayout
##0001
##1b
##reply
are
online
httpentity
lit34
lp
##ite
datainputstream
gravity
players
sequences
u00aek
utf8streamjsonparser
getvisibility
sslsocketfactory
##co
compile
webviewplugin
atomiclong
sdtcostyle
##hd
horizontallistview
identificacao
rf
viewpager2
likeactioncontroller
onpostexecute
wheelview
total
parcelfiledescriptor
11a
business
customtabs
glsurfaceview
chessboardviewplay
barcodeformat
tu
0x40800000
yanzhenjie
ftp4j
uimanager
##transfer
lit32
tb
gf
zzjg
ig
##watcher
onstop
serviceconnection
sauronsoftware
##ear
##reporter
rd
when
##nview
10d
adobeinternal
caching
androidx
##glue
##resources
qv
##cted
##pressed
setadapter
##em
126
guardanis
t820t821
mask
##f5
##ieldkey
##cancel
##userinfo
eo
##ki
u0086h
viewport
##ging
##ka
gx
##aw
##rm
shimmer
lbanks
##eo
##zz
shared
##infoparcel
##lorg
multi
pdfreader
nhn
attahreek
production
##interval
lit38
##mit
##profileactivity
but
ml
levents
v54
11b
itemtouchhelper
ja
mdhalimbd
nativeview
getdata
mariahcareypopularmusic
netringtones
ringtonesidol
steveaokihitspopular
##cape
linkedtreemap
myflashlab
obtainmessage
bottomappbar
scroller
##nabled
movetofirst
##ight
ilorg
pn
##encoding
x509certificate
##cccccccccdl
lroboguice
repports
naverlogin
##sa
p11
##3t
##cr
12a
##1e
abctime
alertcontroller
crbkjr
ontouchevent
syntax
prefs
##rowpresenter
help
pdfpcell
##alue
##post
aslist
##266666666666l
##rc
##8s
##binder
##mn
malinskiy
zzay
zzkr
credentials
isnull
##ʽ
g0
soomla
cropwindow
primary
coroutines
lsprites
house
dz
##man
pub
zu
##abintent
##installer
132
##ys
firstpdf
##sp
frecontext
password
utl
##amp
tx
##analytics
dto
madden
lit130
peripheral
scm
u0907
##fall
crect
webchromeclient
##enderer
142
ho
##functions
tune
remotemediaplayer
ready
##19999999999al
##xl
calavera
tools
##lm
empower
zzbb
##common
##shape
145
implementation
settextsize
tw
hippymap
##scheduler
iw
##ql
product
systemclock
##0ccccccccccdl
##ster
##navigator
##les
##eek
##dio
##ions
hianalytics
highway
messagebean
##rder
##tal
cons
go
setmessage
subscription
sym
##jk
nc
##ong
lit43
133
processexception
##ei
lpl
agentlog
droidsonroids
##gr
##xp
gwcoreutils
sec
solvervariable
mobeta
setaccessible
threadutils
openad
postal
dslv
mrpc
androidlogform
will
##double
##ek
##other
##variable
zzfj
11c
##edge
##textcolor
httpclient
okhttpclient
scope
hb
kk
lit45
11f
he
ludei
mactivity
defines
email
##mf
##hh
0x31
didi
kn
sensors
##fied
isloggable
virtualapk
##angle
##cale
##dy
exchange
bytes
expected
inventory
u00f5n
nm
##ded
rz
##li
plan
pokercity
sleep
syedm
windowdecoractionbar
##check
##edmap
indexoutofboundsexception
locationmanager
zzby
zzlh
##tc
sipservice
zzir
##iser
##pl
1570546086636
17703349356260945
##jj
##mask
gwjniutils
directory
s2
147
floatball
##next
##oc
valuecallback
zzgf
##pageindicator
##debug
marker
aircommand
deviceperipheral
##ness
trace
handlemessage
lit65
partner
should
jeanpierrepicon1987
radiobiglappukonline
##filename
tjy
0x41
##val
##ale
boardposition
##pay
138
sp
iposprinter
##lines
##ug
actionmenupresenter
please
##adactivity
##smanager
129
564
relinker
setduration
getextras
wizards
litepal
pa
##mq
adinformation
tpc
##dge
##sync
audio479059
egldisplay
##dev
##parsedresult
##ume
##updater
##ja
##popupwindow
##ze
##pixels
##arraylist
##hg
12c
notificationmanager
zzkm
##selection
column
##step
fielddescriptor
floatv
kt
notify
u0916
##operator
propertycategory
##listeners
180
zzpm
##lation
##olor
##jl
##tch
dimage
have
zzlg
##8t
##tx
downloadtask
tonyodev
zzmh
11d
zzcr
getitem
safe
##short
gb
##dview
bufferedinputstream
loadurl
actionbarcontextview
##idth
##program
135
iq
onactivityresult
##eq
lit44
rest
##7t
addtoglobalvars
parent
sort
bitset
doomapp
doomgamesdev
li
lit48
methodvisitor
##wp
recognition
##ents
eu
fj
appyjump
barcodebase
##fl
auto
##3333333333l
##initializer
##yz
addop
putboolean
0xbffff
13c
##rame
devicesearchingactivity
igamesservice
clock
##fetcher
zzsh
##iljava
0x5a
ru
##loglevel
##platform
ma
zzdoa
lf
sunflower
##ding
radiobutton
tacticsactivity
##autodetect
audioplayeractivity
##descriptorproto
##ning
137
powermanager
##ontroller
taskcompletionsource
##hn
querylocalinterface
gu
##pc
applovinsdkimpl
movetonext
replaceall
##pad
pfm
setimageresource
tracks
##interstitialad
##qp
140
ringtoneeditactivity
whiteops
zzgt
ds
nxtoyrequesttype
##qd
##pi
convert
0x39
nw
zzmq
##nable
##unity
##zi
getidentifier
getkeepsafe
##entation
jm
146
hg
##ecoder
##accessor
##alpha
##finder
apptechno
fastcharge
testdevices
market
sliding
geolocation
##music
ʻॱ
analysegameactivity
gifdecoder
savinggoals
screen7
zzfhu
##sing
##worker
zzam
##language
##touchevent
##ny
filechannel
##ash
12d
automation
delegates
typeadapter
139
checkersboarddata
##ail
polynomial
##ev
##nf
##ress
##touchlistener
ei
folder
reedsolomon
scrollingtabcontainerview
zzka
define
ibarcodereaderserviceinterface
mi
tabgoalsactivity
zzil
##canner
##close
alloy
##navigation
##onfig
##permissions
##soft
gmsg
lh
mydb
el
hu
igamescallbacks
##5s
##scheme
libs
##intentservice
##stub
separator
getsettings
platforms
##uc
zzso
##det
fh
materialcomponents
setdata
actionmenuview
pegasus
##adient
bigkoo
zzav
##pj
framedconnection
x3
zzbd
##billingservice
##ho
##ks
144
endswith
ntru
putlong
aad
enumeration
##completetextview
##rule
##yb
asn1encodablevector
note
statlogger
##comment
##volume
hm
mapfactory
ˋॱ
##pid
hn
reversi
visibility
##b9999999999al
barchart
determining
googledownloadserver
too
##ratio
##self
madapter
parsequery
tabremindsactivity
##anager
currency
intbuffer
wapsmskeyonlinegameactivity
##jm
12f
ayl
imagesactivity
price
accessibilityevent
##qk
generalsecurityexception
##clicked
lit42
slidinguppanellayout
12e
##api21
0x38
componentcontainer
isenabled
tf
sb
##istics
acosithub
acosshop
baseactivity
mainpicture
struct
##ilter
##ingactionmenu
##insets
##bytearray
getdefault
holder
##clude
##nh
lit46
zzjw
##variables
131
connectivity
##au
##broadcast
##copy
##za
onsuccess
audioplayer
rawquery
##vh
modified
##tive
14d
setvalue
##ier
onbackpressed
##kv
##seekbar
parsedouble
trackselection
ˊॱ
152
iattributeset
##qr
160
appeventslogger
discovery
o0
ej
u00b5h
##ghlight
o00000oo
pulltorefreshbase
www
getinputstream
##ctions
deserializer
zb
149
turnbased
lr
particleemitter
align
hk
incall
singlefieldbuilderv3
##auth
##delay
##checked
##e00000000000l
imagealgorithmlab
ns
that
coddxcxc
phonemetadata
audioservice
##ificate
##limit
active
adx
onmeasure
0x3e
wrap
interruptedexception
aes
received
phonenumber
bufferedsource
##oint
##xt
imageprocessing
zzjb
##erlayout
subviewfragment
##payload
##pref
900
skin
##finishedlistener
##ky
mu
##gravity
##write
0x1000000
annotationintrospector
typeadapters
##asure
after
##datetime
0x1001
presenter
##4ccccccccccdl
blockingqueue
bytearrayinputstream
##chor
##create
##ul
dy
##bo
getstatus
##ground
##imageactivity
isnan
hw
aps
crabsdk
lit86
required
increment
##ability
layers
sendmessage
density
isconnected
onsaveinstancestate
tg
##sd
jeevan
jsonlexer
mt
makernotes
156
bottomsheetbehavior
history
iy
tyevent
##200000000000l
##dismiss
##light
##lp
##dle
##nx
subjects
12b
getitemid
settablefuture
zzmo
##purchase
afma
acc
pojopropertybuilder
##promise
##valid
141
gr
transport
h0
t0
aix
eventtype
##own
##av
##gw
asynctaskrunner
zj
##59999999999al
##fm
connecting
lit79
lzh
154
lcoronaprovider
##datatype
##lifecycle
gn
##alert
##packet
##timestamp
202
collectionelement
matrix4
##hema
gender
##profile
##tabintent
dr
sqlitestatement
##yd
alien
transactionstate
##calendar
##tn
collageoperationview
getlogger
##serviceimpl
ia
operator
##oo
oauth
uncaughtexceptionhandler
xu
##max
##cut
egl10
front
##signal
##widgetfragment
epub
mywebview
proxies
crosspromo
compressformat
o000000o
##raw
activation
actor
asynchttpclient
##hp
##ified
arraydeque
##desc
##ider
valid
anr
##roll
13f
codedinputstream
lit52
pi
150
##linearlayout
157
option
##wx
##gk
##istic
##pane
leolin
safeparcelwriter
signals
zzif
consent
##4t
##vd
change
colorfilter
commands
zlandroid
zzffu
##isplay
prop
collectionviewcontroller
jg
timeline
13a
pedometer
##connected
##menuitemview
h264
pd
##5t
##optionsmenu
15e
zzdrt
##corator
##du
##handlercontext
##v9
readerprofile
seconds
##admob
##ick
analysis
##ra
bluetoothleservice
driveid
##frag
invokemethod
##dataservice
china
rh
wx
yyyy
##ule
##uration
tessgeometry
0xfffff
ny
sandroidactivitywrapperclass
##picture
aderror
facultades
ix
##nativeadview
overscroller
promise
simpleparser
##cker
##openhelper
##zy
asignaciones
il
mostcurrent
scratchmaker
nv
plakoto
onreceive
renderview
##animations
##heartrateactivity
period
growthpush
zzoz
compressors
lw
removeview
vipapp
zhuge
messenger
v80
##eview
##nimator
thuringen
dcssdk
##itions
##olution
daycal
##ack
##pm
ondraw
reverse
your
##photo
avabel
chaosmagic
##flow
##itemanimator
zzbq
##framework
##lot
##hod
##purchases
u00bc0
##bject
ni
zzlc
accesstoken
creativetype
gettag
zzke
zzlb
##points
0x33
fze
swing
##contents
imageeditor
setflags
##gy
dv
lit55
164
##cookie
dflonum
n0
profiling
0x3b
kategori
lit3
viewlinesactivity
##extras
ciphersuite
img
qh
zzld
daynamic
sanapubgs
##profiler
##tils
##used
tungdx
##sg
crouton
lit56
##controllerimpl
163
managedvariables
0x7d
abdolmaleki
ariangroup
root
si
##bound
##ignal
allowed
ik
smoothstreaming
##imp
143
does
##arguments
##133333333333l
##gq
##requestbuilder
chad
##ean
ranges
tabsportsnewsleepdaydetailactivity
##gen
##lj
0x1000
getcause
kw
mapview
##org
cextension
filesystem
hj
lit54
rock
getdouble
zzci
##crypt
bounds
filetransfer
##eation
##ura
encoding
lit47
then
fingerprint
nx
##qq
##run
159
176
##idview
mx
##heure
##ju
16c
iam
treeset
##downloadmanager
##files
##poly
simplearraymap
versioncode
##cer
herramientaseducativas
ogg
progresswheel
tiapplication
pushmanager
sy
zzbr
##edexception
##obj
##textchanged
raw
##c66666666666l
##rier
kh
zipfile
before
binary
zzlx
settypeface
admobadapter
filename
grantland
jd
##pageradapter
metric
##tools
##ward
hard
obd
contentviewcore
lbutterknife
##apiclient
activityhandler
13b
osmdroid
##ged
distributionsactivity
enjoy
##proto
mnequal
than
trainactivity
##2ccccccccccdl
##mm
162
chartaxis
stringtokenizer
sysbackground
##rotation
196
jcedisplayer
##eries
newapp
routing
threadpoolexecutor
u00e3o
back
clresult
xsicallmanager
##sl
00
##3dactivity
disc
matches
animatorlistener
head
milkmangames
##archiveentry
14e
assertionsdisabled
case
dragsortlistview
zzar
##bitarray
enummap
month
pagerslidingtabstrip
##fer
dotwebviewclient
##dto
##oolbar
##supported
##0002
##nds
##ontainer
##ton
adad
gads
square
tiuiview
##devicelistactivity
ironsourcelogger
radiusnetworks
14c
mh
foreground
vdr
ॱˊ
mlistener
##egate
legend
##ji
0x36
circleimageview
getposition
lit57
geturl
hs
vbo
##bannerview
##qg
msize
namespace
##wy
synergyconstants
##rsp
lit58
nb
paywall
translate
##yv
##annotation
textdrawer
##0003
##79999999999al
##ren
datamanageractivity
zl
##srenderer
artappstudio
capphoto
girlhats
ly
##pace
##yg
xqparser
##qy
##39999999999al
##lineactivity
agoo
pawcomm
##6s
168
deserializationconfig
webapp
optint
errormessage
storeandforward
appodealx
chandler
pdfarray
##gp
##ire
##wahan
rules
##hip
##ore
fm
activitychoosermodel
brushcanvas
##xm
getmeasuredwidth
readline
##fullscreen
##s2
170
u00100
zzwr
##chain
##looper
customevent
##classname
##d33333333333l
##ig
##rv
livewallpaperservice
placeholder
##vs
155
car
##itmap
emptylist
fw
zzmm
##066666666666l
##route
ironsourcetag
zzgv
##surface
ibeacon
##subject
##wl
13e
alog
bet
##ade
172
colintree
jh
adawebview
shaders
##buttonstyle
##gv
tooltip
wakelock
##arser
##sit
##xx
0x3ff0000000000000l
nj
elapsedrealtime
##consumer
avteam08
visible
##middleware
##napshot
##ild
##mapview
##onse
##emitter
13d
14b
cropoverlayview
##ible
setup
##mobile
##notfoundexception
158
ih
schedulers
vectordrawable
zzkd
##agang
getmeasuredheight
lit68
quadtree
##cause
##eccccccccccdl
mndo
##venttype
lit60
##children
##clerview
##pan
wheel
153
abstr
ks
mnvars
mnafter
mncreation
vodplayer
zzkb
ˏॱ
##lf
##aj
##pedagang
##uid
lit59
##fx
##spatch
##stein
lispexpr
mp
pdfdocument
zzmd
zzmn
##nb
nk
userinfo
zn
##ponse
arrayadapter
gv
nt
##esponse
##bh
##column
rp
##opened
##bj
qo
lir
nexttoken
routeinfo
##fu
##instancestate
linkedhashtreemap
##466666666666l
##buffers
##oj
capture
v57
##hy
getpackageinfo
##6ccccccccccdl
##match
##off
14a
##listitem
alert
dpslog
framedstream
md5
sm
srfi1
##elegate
currentthread
p12
##arams
##gb
##tach
##unityplugin
uid
googleutils
artist
zzqj
##ou
keystore
##effect
##lookup
contextdatamanager
shareutil
##edential
androidactivitywrapper
getdeclaredmethod
ty
##ender
##sable
##textappearance
##v3
requestlayout
##ph
##smash
jsinterface
##hr
np
vertical
##lw
##qf
nextchapter
u0018r
continuation
lit67
off
##kb
15a
##align
##cn
##uw
mview
##uilder
rk
##abs
##margins
1551544119739
6572406505788561
licensing
##pendency
dump
filedescriptor
lit119
tpdb
##sk
##verflow
gettop
##uuid
ko
productinstance
skip
##controls
appwidget
rc
##classloader
adlistener
verubicaciones
##ertex
##progressdrawable
appmeasurement
avi
requestcreator
securerandom
getapplicationinfo
lnl
##machine
##tf
gamesalad
gw
zzko
##umb
##ving
args
sqldroid
webviewfragment
##edlist
lmd53ad497fea3b19a8f7577a1e38fef685c
zzeh
##oyou
acts
##her
15c
bootstrap
##stop
appadforce
lit53
port
va
##mt
cutoutview
u0003s
zzjq
151
sn
##gg
menuinflater
popup
configs
##args
##cation
##creen
##runtimeexception
cms
removecallbacks
settype
tip777
zzmw
##ontext
0x10100d0
171
converter
##oi
##wr
166
mraidvideoaddendumview
zzbbi
##ast
161
##exture
##pa
##peat
beans
translation
zzkl
##ory
resolutionanchor
##chartview
checkersboardcell
zzfm
zziv
##gt
##nu
addflags
lit62
zzuw
##ʾ
zzbk
zzlt
##sc
basicnamevaluepair
registrodeproductos
##default
lit74
z3
##f9999999999al
0x34
httpsurlconnection
jobdispatcher
##rror
black
tohexstring
##gc
##igest
backup
completable
zzaw
zznr
##prefs
##ˈ
packet
photoeditorlibrary
dots
materialshowcaseview
operations
zzaq
zzdz
##appid
##gj
ondestroyview
##sprite
188
activeandroid
dynamite
##gin
ez
tiled
videoactivity
jeevanarogya1
lx
zzle
##abledatabase
##arraybuffer
##oken
##sender
h5
indicators
jsonmappingexception
lplugin
fflandroid
truenet
##fn
jeevanshanti
large
parselong
##ending
##hactivity
0x65
##pabilities
##usage
169
fileencodingdetect
isassignablefrom
##protocol
setid
##gument
holocolorpicker
tealium
##erid
##fw
16a
sipprofile
u0005m
##elected
##vt
185
fontfamily
w0
##contentactions
##nter
##attachedtowindow
readerbasedjsonparser
defaulthttpclient
tauth
wdzonerepetee
lambdaexp
regactivity
##600000000000l
##clientimpl
failure
zzef
##factor
##kk
compat
setchecked
doapps
linker
pimage
signup
##3s
##contentdescription
delivery
zzjt
##a00000000000l
iu
notifier
ortc
pushtracer
scrollview
##866666666666l
adloaded
v58
##drawablecompat
gettitle
libt
splashconfig
statelistdrawable
tables
zzia
##axcallback
ls
parallelarray
##fr
appcompatactivity
assetview
mini
##dstate
##hat
##ˑ
book
host
##sound
oq
orientationhelper
qm
##933333333333l
##extview
##needed
187
buf
googleplace
javascript
mac
u0088f
wait
##ayoutlistener
tm
##digest
world
##533333333333l
##bucket
##statechanged
isocountry
##typeadapter
##videocapturer
##0004
##identifiers
165
created
ng
zzkk
##cryption
been
httpmethod
lit66
##datepicker
##itive
jk
zzwt
##nw
##oftware
174
getleft
mirros
16f
##appearance
##dict
##polynomial
gov
hide
tbs
u0095v
begin
drawablecontainer
##td
datetimeformatter
mergefrom
setbackgrounddrawable
x500
##0005
##jsongenerator
full
lrucache
small
u094c
##showing
deque
httpcontext
lit95
ndoors
repport
##hu
0x10000
privacy
##ind
##vp
contenttype
lingshi
lit78
tq
##edvideoad
##mpty
0x37
u0001o
##7s
##9s
##bu
##ez
trialpay
zzfs
##alive
gpuimagefiltertools
##ocator
##teway
serializationconfig
setstyle
zzat
##qa
0x2000
0x7fffffffffffffffl
zzak
bluetoothadapter
getstate
materialprogressbar
zzkf
##cast
lit71
nearestatm
##colors
0x61
transactiondata
##ci
##typedarray
jo
mipush
resume
##hart
##hq
jlcom
##moactivity
##nment
##ush
sensormanager
zzmg
desiredassertionstatus
##accccccccccdl
v74
##chartrenderer
182
caomobilesdkui
wdresihm
wifimanager
##0008
##ication
##lifecyclecallbacks
fu
onresult
##backcontrolview
##ull
setresult
setpositivebutton
##edit
iiiljava
tokeniserstate
05
0x4000000000000000l
184
accept
##0007
##comparator
##zr
extendablelistview
getservice
styles
databasehelper
##detachedfromwindow
objectmap
##panelview
##requestparams
##ru
dimension
##ervices
0x1f4
14f
kb
ql
spannablestringbuilder
trainingactivity
##byname
##hinttype
u00f6e
camembertaucalvados
lit51
zzfd
##roperties
##tries
186
18a
wdentier
zzmi
zzaz
zzcim
##paddingbottom
handshake
listiterator
subscriptions
zzdv
##fully
##loadingview
##rg
domain
hr
##downloadtask
0x46
lit72
parameterizedtype
photopicker
stroke
zzup
##pen
imageviewer
peek
u092b
##bl
##tes
equal
cordovawebviewinterface
##counter
##rp
##onservice
##ound
##purchasing
lastindexof
liuzhuang
swigcptr
wang
zzkq
##save
ha
ingeometry
radar
zzzz
openapi
adobeair
178
192
zznj
##tl
##xu
179
lualoader
readdialog
tessellator
##esource
##pb
##sibility
zzsz
##tfragment
##ummary
0x10000000
pgraphics2dx
##4s
devicedialogs
jsonkey
warning
wdcontexte
zzmk
##paddingright
##pted
mq
##ject
0x5d
radioplayeractivity
##0digest
##book
##statement
htmltreebuilder
zzji
##document
##oy
analyseofflinegameactivity
loglevel
shadow
wv
zznq
arh
fg
gd
sa
u0013i
u00e6r
##dn
##kr
##tated
cameracapturer
ftpclient
##ption
##requestbase
cie
lit61
viewmanager
zzlp
##asstring
linkedblockingqueue
barcodesdk
imp
##arrangement
##indirectreference
appcompattexthelper
cards
wdchaine
zzlq
##400000
##gz
alivc
kaiserslautern
mixing
phonenumberutil
screen12
##gement
zzlo
##curve
##gedobject
##sample
anjeldeveloper
tarikhiran
webviewactivity
zzsn
old
onconnectionfailedlistener
zzkv
175
http2connection
mediaformat
##routedmove
gy
initialized
ir
bdlocation
repo
##sport
##xer
appbar
ki
zzqb
age
bgboardside
gluhalfedge
onanimationend
##eu
255
argb
demo
lit77
##ylist
generatedmessagelite
kf
parseuser
setproperty
sync
##playerview
##rb
rg
v55
pshape
zzix
##case
##iabhelper
chartdatamanager
cpt
lzq
v79
zzod
##fi
##jsonimpl
##00000
ady
offlinestore
##and
##rr
zzli
##serializable
##va
pl
wd
##kg
##kind
##vc
##vl
horse
zzlv
##ec2
##ength
##fy
##nse
##tic
0x66
16d
ceventprogram
mpaint
randomaccessfileorarray
getdimensionpixelsize
screen47he65
##alues
editimage
second
##ote
gpuimagefilter
zzjo
##newfragment
addaction
getresourceid
kq
##0006
##coder
##wf
viewsinglelineactivity
##exoplayer
hpb
ontouchlistener
##html
healthy365
lv
pires
##ractivity
arunlogin
##contentview
##zoom
contrarywind
devicetype
devmanich
exoplayerimplinternal
lsg
yi
pdfview
setaction
nestedscrollview
nr
origin
public
##ature
loadad
u0087r
zzbg
##ized
u0012l
##qi
##tail
nodelist
serviceprovider
##rw
##samplesource
##ʿ
applovinlogger
##menuitem
##plate
members
onoptionsitemselected
u00cfe
zznf
##umed
iiiii
##0l
##jn
lkankan
zzkz
##uf
changed
zzmz
##pd
zw
##codec
axdev
jsonpath
ke
numberformat
thequotesgarden
u000b0
wireformat
##prop
coronaruntime
lit64
##culation
amap
lmd5b60ffeb829f638581ab2bb9b1a7f4f3f
substr
white
clouddataservice
frame0
##1l
##imatetime
##ptor
article
gforth
inflater
likeview
myservice
zzbl
##grid
##hm
##strokewidth
##uppercase
complete
longpoint
##acity
##gon
##meta
apptalevn
setgravity
##dhi
appboylogger
astickyheader
dworks
rm
sidebar
##qz
appwidgets
filteredcollection
##cal
##evaluator
##ializationfeature
##tlin
193
skudetails
truyenmaapptalevn
##adunit
##sleepactivity
ays
##erver
sample
##chooserdialog
##pv
##urer
adverts
##erviceimpl
kj
u00aed
unsupported
##namemap
axis
descriptorproto
setcolorfilter
##xb
0x42
oe
zzlm
zzmr
##results
checkermove
clustering
gl10
rotation
setbackgroundresource
zzkc
mcallback
setpadding
195
fy
ky
wdexceptionjni
##lu
15f
imagesequenceoverlayview
v84
##0s
##subscription
##uv
18e
mremote
zzaai
zzcg
zzms
##etry
menuview
started
##done
inapps
zzada
zzch
##aration
##ision
displayimageoptions
##vz
silkimen
##ij
##member
dcssdkdefs
v56
##olved
002
kd
makemeasurespec
oo
qs
facebookadapter
itemmanipulation
jobinfo
zzmu
##000000
##runner
actionbarcontainer
getjsonarray
##chunksource
##producer
cell
etceteraplugin
circularprogressdrawable
zzjj
##dismisslistener
more
##gx
decodedbitstreamparser
##destroyed
lit85
pg
selected
tasktype
##dbitmap
##mg
barcode128
ziiii
##eds
##circle
##fenetre
##print
any
jl
lue
zzchm
##wg
optjsonobject
u00130
vertices
zzfy
zzmx
##acing
loaded
rgb
tabsportsnewsleepdayactivity
u00c1q
##essionmanager
pjsuajni
##amera
##az
##ket
##share
weight
##radapter
173
callwaitintent
datetimefieldtype
lit70
u001eu
zzfr
zzjr
##ert
3000
bottomsheet
graphrequest
imagechooser
kbeanie
ldev
modelmsg
mscorlib
mw
pb
settag
subtitle
th
##xo
167
tl
##ateinterpolator
##ned
##pth
amberhome
jt
zzls
zzml
15b
shawnlin
baseinfo
margin
spinkit
##userid
badge
ybq
##kj
##last
##layouthelper
##nr
##tv
getassets
inverse
monitoringview
##nl
adg
##only
##proc
##trigger
1100
chain4
coronaactivity
floatview
u09be
zzmj
##afmasignals
##basecontext
##prefix
apv
finished
pr
u00160
##fortype
##interstitiallistener
flash
verticalarrangement
##parseexception
##ustmanager
##vy
abslistview
asn1integer
flipcoverintent
zzku
##833
##imagedrawable
##methods
##sv
adaframeview
schedule
##ular
16b
dynamiccontent
prenoms
##dz
##ydatek
upsightcontext
##ell
##xtensioncontext
190
jsonfactory
onlayout
sd
0x5c
v210
zzkj
zzpe
##itemview
##057
serverconfig
zzlu
##cp
##sresult
zzga
##g1
##observable
connectioncallbacks
googleapimanager
googlepushservices
messagesact
stringkey
zzbgm
zzho
zzlr
androidwebview
lit63
zzjs
##bluefragment
##ettingactivity
##jp
##sview
getpaddingleft
hv
multistateoverlayview
setimagebitmap
whisp
##000e
##je
##mediator
##rx
createmethod
intern
zzacq
zzcm
zzjp
##frames
platformtools
zzlz
##jb
##jsonobject
0x2710
sha
zzmb
##qu
##velocity
mnappend
zzly
##ise
##xk
##2s
appstate
bufferedoutputstream
clicklistener
firebaseinstanceid
musicservice
resolvedrule
zzlf
##ved
##failedtoload
##hl
0x200
liturgigbkp
##ined
catalog
httphost
jpeg
lit83
##ibility
swesginting
u00a7r
zzma
##ptable
##zh
describecontents
modes
##000a
##actions
##adloaded
##edview
##hw
##shing
constantstate
inthashtable
tilemode
pdfnumber
u008dt
zzkw
##ouch
j0
jobrequest
leaguplaydream
navigationview
soccerfotbal
zhanghai
##andset
##nameverifier
##ncy
##rice
##xw
sevenz
##dh
##spose
comapi
za
##arent
adloader
imaging
zzpz
##area
##bg
kg
sink
##tg
onitemclicklistener
popupmenu
##ontouchlistener
##review
setrequestproperty
zzof
zzoj
##evaluationinfo
barcode2dwithsoft
lparams
##000c
##inactivity
1a0
256
soundcloud
u00ecf
##ality
##bw
##dactivity
eventlistener
mnvar
ri
u00dep
##ening
##zo
lit84
offloat
u00b84
zzuh
##1s
##datastore
##lc
##nn
##pu
requestparams
##motion
##running
nointernet
syndataactivity
u008aa
##0009
##2t
eglsurface
##aining
##hash
csvreaderwriter
scheduledfuture
staticmethods
zzky
0x2002
kc
videoads
widgetlist
##ors
##progressdialog
wb
zzaax
##configurations
##memory
##responsecode
onconfigurationchanged
transitionvalues
zzds
##446
afinal
flac
fotocollage
setname
u00d3f
xadsdkfoundationfacade
##ensor
##mageview
##uton
adh
interval
mnregister
superimage
##received
##simpl
may
zzaaz
zzey
##layoutparams
adapterhelper
linearsystem
mkdirs
strictmode
u008cg
zzkg
##rator
177
invalidprotocolbufferexception
simpleimagetextview
zzahn
zzmp
##ebactivity
##modifiers
##oder
##vert
bytebufferlist
desc
u00140
zzlk
zzlw
##ips
##keylistener
serializewriter
v64
x9
##struct
big
createbitmap
startup
watch
##webactivity
##xg
fragmentsalesmanagementpresalesorderdetails
huc
settablebeanproperty
##301
##lightview
marpies
secrethq
##a00000
##articlecontentviewcontroller
##defaults
##ease
##vn
kx
md581985d7f357d4d8f9c2df74de1eb7224
zm
##electactivity
##jx
nativeframework
quest
remoteinput
##implapi21
constant
getlength
u009ap
a3dprintererrors
nosuchelementexception
wanish
wl
##qc
##tintlist
198
foregroundpaper
gm
jscontroller
recorder
##000b
##uz
##byid
##controlview
##cz
##guide
##note
crops
vt
zzact
zzeb
##egration
erreur
modcount
##iseconds
##nected
##p9
kz
tn
u0091d
u0908
##ious
##toggle
##vw
appcompatdelegateimplv7
##functioncall
##ody
##stion
got
span
zzdi
zzen
##ye
onlinegamewithbillingml
##head
##headerparser
##pw
##rge
##roid
##speed
boundingbox
newpageframe
uk
unmodifiablelist
zztv
##ani
##cover
##eyspec
##httpresponse
0xffff
rq
validate
##194
##convert
##vv
16e
getpaddingtop
gwadsdkcore
15d
seticon
startactivityforresult
threadfactory
zzjm
zzkx
##poolexecutor
##rovider
camerarollextended
lndreamleague
rr
timeinterpolator
u0085n
zzuo
##iw
##videocontroller
obtainstyledattributes
requestmanager
statfs
tempsqlmodel
lit101
zzhx
##zn
calllog
jsonstringer
##ium
##nes
##wa
##wt
chartview
pf
sign
##cher
##def
##rh
##ystem
extractstyle
headsup
keyboardsurfer
req
##0029
##00l
##bannerad
##cvalue
##ec4
applovinad
##deserializers
##dfield
250
filenotfoundexception
u00d4a
##0017
##adinterstitial
##itch
##rap
appcompattextview
routestopactivity
k8
resultset
##ination
##juster
181
mstate
videoplayeractivity
##cccd
##gridlayouthelper
##qj
mime
wdbooleen
zznx
##000d
##ink
##moduleactivity
##resulthandler
zaa
##videoviewcontroller
viewcoverintent
wmf
##rinsicblas
gllogwrapper
##datasetchanged
chartseries
markeroptions
n7
widthpixels
##actionbutton
##ense
##qe
1a6
fv
zzst
##filedescriptor
##ria
##uj
##utton
0x10100b3
fonts
zzgd
driverequest
volume
##colorfilter
##ontrol
nativecrashhandler
tricks
##dx
##roker
##yh
xmpnode
zzax
zzbm
##001b
##ral
##zb
17a
htmlviewwrapper
statconfig
zzll
##blemap
##our
##zl
17d
basecolor
func1
zzks
##aign
##edqueue
##google
##integer
##lide
##zf
ironsourceloggermanager
po
preferencemanager
##authenticator
##purchasefinishedlistener
##xz
##zc
zzja
##ake
##ans
1cd
edgeeffect
people
##onnected
mf
##edvideo
##o0
##partial
##qo
##subscribe
##tout
0x800
isdirectory
pass
profig
textonphoto
u0084q
##javascriptinterface
1cf
swigtype
zzaap
##moved
cgrect
gamehelper
lar
now
sq
##corview
##instantiator
##refreshheader
##ured
##wakelock
alignment
lnik
simple
translator
u00b1u
zzsb
##pk
evt
lit76
localdatabase
zzkn
zzln
##parameterspec
getfield
pubcoderlib
serpentengine
##dataset
##kd
##us1
hp
lit69
##001e
##hj
##sy
##xv
bqm
nxtoyresult
speecherror
##di
##fp
##obs
closequietly
readermanagerapi
0x52
setstate
0x12c
defaultjsonparser
ialog
kitchen
uniform
zzbj
##accessexception
##ah
##ertoggle
##storagedirectory
bottomnavigationview
worker
##001c
##ga
##ude
##uence
jformatter
using
##typesystem
memorycache
wr
zzft
zzfw
zzmc
##ason
##bit
##qh
##ution
cbc
datetimeformatterbuilder
##arrayadapter
##dia
##operationlist
##tj
beandescription
u0007d
webviewcallback
zzcb
##ings
##show
##trs
##vk
aidlservice
v65
circularreveal
eglconfig
lit97
##0019
##3l
##intmap
##webview2
int32
jiuiv5
virtuallayoutmanager
xmlpullparserexception
##put
adobeauthidentitymanagementservice
child
tokenbuffer
##equence
##vr
##xmlhandler
done
alarmmanager
imageviewtouchbase
soundpool
##chararray
##emessage
##hv
##logic
0x53
contents
gz
webrequest
##!
##"
###
##$
##%
##&
##'
##(
##)
##*
##+
##,
##-
##.
##/
##:
##;
##<
##=
##>
##?
##@
##[
##\
##]
##^
##_
##`
##{
##|
##}
##~
##·
##æ
##ð
##ı
##ĸ
##ł
##ŋ
##ŧ
##ƈ
##ƒ
##ƚ
##ƨ
##ƫ
##ƭ
##ƴ
##ǀ
##ǃ
##ǝ
##ȝ
##ȣ
##ȷ
##ɍ
##ɐ
##ɑ
##ɒ
##ɔ
##ɕ
##ə
##ɛ
##ɜ
##ɟ
##ɢ
##ɣ
##ɤ
##ɥ
##ɦ
##ɨ
##ɩ
##ɪ
##ɫ
##ɬ
##ɭ
##ɯ
##ɲ
##ɳ
##ɴ
##ɵ
##ɹ
##ɺ
##ɻ
##ɼ
##ɽ
##ɾ
##ɿ
##ʁ
##ʂ
##ʃ
##ʄ
##ʅ
##ʇ
##ʈ
##ʉ
##ʊ
##ʋ
##ʌ
##ʎ
##ʏ
##ʐ
##ʑ
##ʒ
##ʔ
##ʕ
##ʖ
##ʜ
##ʝ
##ʟ
##ʡ
##ʢ
##ʭ
##ʹ
##ʺ
##ˀ
##ˁ
##ˆ
##ˇ
##ˉ
##ˌ
##ˍ
##ˏ
##ː
##ˬ
##ˮ
##ͻ
##β
##γ
##δ
##ε
##ι
##κ
##λ
##ν
##ξ
##ο
##ρ
##σ
##τ
##υ
##φ
##χ
##ϙ
##ϛ
##ϝ
##ϟ
##ϯ
##ϳ
##б
##г
##е
##з
##к
##л
##н
##о
##п
##с
##т
##у
##ф
##х
##ц
##ч
##ъ
##ь
##э
##є
##ѕ
##і
##ј
##ѵ
##ҁ
##ґ
##ғ
##ҫ
##ҭ
##ү
##ҷ
##һ
##ӌ
##ӏ
##ԁ
##ԅ
##ԇ
##ԍ
##ԏ
##ՙ
##դ
##յ
##ն
##ո
##չ
##ս
##ւ
##օ
##א
##ב
##ג
##ד
##ה
##ו
##ז
##ח
##ט
##י
##ך
##כ
##ל
##ן
##נ
##ס
##ע
##ף
##פ
##ץ
##צ
##ק
##ר
##ת
##װ
##ױ
##ײ
##ء
##ا
##ب
##ة
##ت
##ث
##ج
##ح
##خ
##د
##ذ
##ر
##ز
##ع
##غ
##ـ
##ك
##ل
##م
##ن
##ه
##ى
##ي
##ٮ
##ٱ
##ٲ
##ٳ
##ٴ
##ٹ
##ٺ
##ٻ
##ٽ
##پ
##ٿ
##ڀ
##ڃ
##ڄ
##ڈ
##ډ
##ڊ
##ڋ
##ڌ
##ڍ
##ڎ
##ڏ
##ڐ
##ڑ
##ڒ
##ړ
##ڔ
##ڕ
##ږ
##ڗ
##ژ
##ڙ
##ک
##ڹ
##ں
##ڻ
##ڽ
##ہ
##ۃ
##ۅ
##ۉ
##ۊ
##ی
##ې
##ے
##ە
##ۥ
##ۦ
##ܐ
##ܕ
##ܖ
##ܘ
##ܙ
##ܚ
##ܝ
##ܟ
##ܢ
##ܥ
##ܪ
##ܫ
##ܬ
##ߊ
##ߑ
##ߗ
##ߙ
##ߠ
##ߤ
##ߴ
##ߵ
##ߺ
##ट
##र
##ऽ
##ॽ
##ঌ
##এ
##ও
##খ
##গ
##ঘ
##চ
##ঢ
##ণ
##দ
##ধ
##ন
##প
##ব
##য
##র
##শ
##ষ
##হ
##ঽ
##ৰ
##৲
##৳
##ઽ
##ட
##ก
##ค
##ฅ
##ง
##จ
##ฑ
##ต
##ถ
##ท
##น
##บ
##ป
##ผ
##ภ
##ม
##ย
##ร
##ล
##ว
##ห
##อ
##ฯ
##ะ
##า
##เ
##แ
##โ
##ใ
##ไ
##ๅ
##ๆ
##ງ
##າ
##ເ
##ა
##ე
##ი
##კ
##ნ
##პ
##ძ
##ᄂ
##ᄇ
##ᄉ
##ᄎ
##ᄑ
##ᅢ
##ᅧ
##ᅮ
##ᅳ
##ᅵ
##ᆞ
##ᆼ
##Ꭲ
##Ꭵ
##Ꭸ
##Ꭻ
##Ꮀ
##Ꮁ
##Ꮠ
##Ꮣ
##Ꮧ
##Ꮭ
##Ꮮ
##ᐜ
##ᐞ
##ᐟ
##ᐠ
##ᐡ
##ᐢ
##ᐣ
##ᐤ
##ᐥ
##ᐦ
##ᐧ
##ᐨ
##ᐩ
##ᐪ
##ᐯ
##ᐱ
##ᐳ
##ᐴ
##ᐵ
##ᐸ
##ᐹ
##ᑈ
##ᑉ
##ᑊ
##ᑋ
##ᑦ
##ᒃ
##ᒄ
##ᒉ
##ᒋ
##ᒌ
##ᒍ
##ᒎ
##ᒏ
##ᒐ
##ᒑ
##ᒡ
##ᒢ
##ᒣ
##ᒥ
##ᒦ
##ᒧ
##ᒨ
##ᒩ
##ᒪ
##ᒫ
##ᒬ
##ᒭ
##ᒮ
##ᒯ
##ᒰ
##ᒱ
##ᒲ
##ᒳ
##ᒴ
##ᒵ
##ᒶ
##ᒷ
##ᒸ
##ᒹ
##ᒺ
##ᒻ
##ᒼ
##ᒽ
##ᒾ
##ᓐ
##ᓑ
##ᓒ
##ᓓ
##ᓕ
##ᓖ
##ᓗ
##ᓘ
##ᓙ
##ᓚ
##ᓛ
##ᓪ
##ᓫ
##ᓭ
##ᓮ
##ᓯ
##ᓰ
##ᓱ
##ᓲ
##ᓳ
##ᓴ
##ᓵ
##ᓶ
##ᓷ
##ᓸ
##ᓹ
##ᓺ
##ᓻ
##ᓼ
##ᓽ
##ᓾ
##ᓿ
##ᔀ
##ᔁ
##ᔂ
##ᔃ
##ᔄ
##ᔅ
##ᔆ
##ᔇ
##ᔈ
##ᔉ
##ᔊ
##ᔋ
##ᔥ
##ᔦ
##ᔨ
##ᔩ
##ᔪ
##ᔫ
##ᔬ
##ᔭ
##ᔮ
##ᔱ
##ᔲ
##ᔹ
##ᔺ
##ᔽ
##ᔾ
##ᔿ
##ᕀ
##ᕁ
##ᕂ
##ᕃ
##ᕄ
##ᕆ
##ᕐ
##ᕑ
##ᕝ
##ᕪ
##ᕻ
##ᕽ
##ᖅ
##ᖕ
##ᖟ
##ᖦ
##ᖧ
##ᖨ
##ᖩ
##ᖪ
##ᖫ
##ᖬ
##ᖭ
##ᖮ
##ᖸ
##ᖺ
##ᖽ
##ᖾ
##ᖿ
##ᗀ
##ᗁ
##ᗮ
##ᘁ
##ᘂ
##ᘄ
##ᘅ
##ᘆ
##ᘇ
##ᘢ
##ᘣ
##ᘤ
##ᘥ
##ᘦ
##ᘧ
##ᙆ
##ᙇ
##ᚁ
##ᚆ
##ᚐ
##ᴂ
##ᴄ
##ᴈ
##ᴉ
##ᴊ
##ᴋ
##ᴏ
##ᴐ
##ᴒ
##ᴖ
##ᴗ
##ᴘ
##ᴛ
##ᴜ
##ᴝ
##ᴠ
##ᴢ
##ᴣ
##ᴦ
##ᴧ
##ᴩ
##ᴫ
##ᴻ
##ᵎ
##ᵻ
##ᶅ
##‿
##⁀
##⁔
##ↄ
##ⴡ
##ⴶ
##ⴾ
##ⵂ
##ⵆ
##ⵈ
##ⵏ
##ⵑ
##ⵗ
##ⵡ
##々
##〱
##〳
##〵
##ぃ
##く
##っ
##へ
##ゝ
##ァ
##ア
##ィ
##イ
##ゥ
##ウ
##ェ
##エ
##ォ
##キ
##ク
##ケ
##コ
##シ
##ス
##ソ
##チ
##ッ
##テ
##ト
##ナ
##ニ
##ヌ
##ノ
##ハ
##ヒ
##フ
##ヘ
##マ
##ミ
##メ
##モ
##ャ
##ュ
##ユ
##ョ
##ラ
##リ
##レ
##ヮ
##ワ
##ヲ
##ン
##ヶ
##ー
##ヽ
##一
##下
##专
##丨
##丫
##中
##丶
##丿
##乀
##乁
##亅
##亠
##介
##付
##件
##优
##俅
##先
##入
##冖
##写
##冫
##切
##卸
##取
##变
##号
##否
##启
##吹
##告
##固
##图
##地
##址
##士
##多
##始
##宀
##定
##屏
##岬
##岽
##己
##常
##广
##序
##开
##异
##式
##张
##强
##得
##忄
##惂
##打
##执
##择
##捉
##捕
##换
##支
##改
##文
##时
##是
##显
##更
##权
##析
##概
##次
##氵
##求
##测
##滇
##灬
##烇
##爫
##片
##率
##用
##的
##示
##第
##緸
##组
##绍
##自
##色
##获
##藛
##藞
##藟
##藠
##藡
##藥
##藦
##藨
##行
##角
##解
##讬
##试
##请
##读
##賭
##账
##跳
##载
##过
##进
##选
##釔
##鈦
##锕
##锞
##闪
##间
##限
##页
##顺
##驶
##ꓲ
##ꓸ
##ꓹ
##ꓺ
##ꓻ
##ꓼ
##ꓽ
##ꙇ
##ꜛ
##ꜜ
##ꜝ
##ꜞ
##ꜟ
##ꜥ
##ꞌ
##ﹳ
